#include "magic_wand_model_data.h"

// We need to keep the data array aligned on some architectures.
#ifdef __has_attribute
#define HAVE_ATTRIBUTE(x) __has_attribute(x)
#else
#define HAVE_ATTRIBUTE(x) 0
#endif
#if HAVE_ATTRIBUTE(aligned) || (defined(__GNUC__) && !defined(__clang__))
#define DATA_ALIGN_ATTRIBUTE __attribute__((aligned(4)))
#else
#define DATA_ALIGN_ATTRIBUTE
#endif

const unsigned char g_magic_wand_model_data[] DATA_ALIGN_ATTRIBUTE = {
  // Paste the data of the char array in `src/model.cc` here
  0x1c, 0x00, 0x00, 0x00, 0x54, 0x46, 0x4c, 0x33, 0x14, 0x00, 0x20, 0x00,
  0x04, 0x00, 0x08, 0x00, 0x0c, 0x00, 0x10, 0x00, 0x14, 0x00, 0x00, 0x00,
  0x18, 0x00, 0x1c, 0x00, 0x14, 0x00, 0x00, 0x00, 0x03, 0x00, 0x00, 0x00,
  0x18, 0x00, 0x00, 0x00, 0x2c, 0x00, 0x00, 0x00, 0xd8, 0x00, 0x00, 0x00,
  0x2c, 0x00, 0x00, 0x00, 0x80, 0x00, 0x00, 0x00, 0x78, 0x00, 0x00, 0x00,
  0x05, 0x00, 0x00, 0x00, 0x28, 0x07, 0x00, 0x00, 0x44, 0x06, 0x00, 0x00,
  0xbc, 0x03, 0x00, 0x00, 0xf8, 0x02, 0x00, 0x00, 0xac, 0x01, 0x00, 0x00,
  0x01, 0x00, 0x00, 0x00, 0xd0, 0x00, 0x00, 0x00, 0x14, 0x00, 0x00, 0x00,
  0xdc, 0x32, 0x00, 0x00, 0xd8, 0x32, 0x00, 0x00, 0xd0, 0x31, 0x00, 0x00,
  0x1c, 0x31, 0x00, 0x00, 0x74, 0x30, 0x00, 0x00, 0xfc, 0x2f, 0x00, 0x00,
  0x90, 0x2f, 0x00, 0x00, 0x40, 0x13, 0x00, 0x00, 0xec, 0x11, 0x00, 0x00,
  0x10, 0x10, 0x00, 0x00, 0xb4, 0x07, 0x00, 0x00, 0xb0, 0x32, 0x00, 0x00,
  0xac, 0x32, 0x00, 0x00, 0xa8, 0x32, 0x00, 0x00, 0xa4, 0x32, 0x00, 0x00,
  0xa0, 0x32, 0x00, 0x00, 0x9c, 0x32, 0x00, 0x00, 0x98, 0x32, 0x00, 0x00,
  0x94, 0x32, 0x00, 0x00, 0x3c, 0x00, 0x00, 0x00, 0x00, 0x00, 0x00, 0x00,
  0x01, 0x00, 0x00, 0x00, 0x0c, 0x00, 0x00, 0x00, 0x08, 0x00, 0x0c, 0x00,
  0x04, 0x00, 0x08, 0x00, 0x08, 0x00, 0x00, 0x00, 0x08, 0x00, 0x00, 0x00,
  0x13, 0x00, 0x00, 0x00, 0x13, 0x00, 0x00, 0x00, 0x6d, 0x69, 0x6e, 0x5f,
  0x72, 0x75, 0x6e, 0x74, 0x69, 0x6d, 0x65, 0x5f, 0x76, 0x65, 0x72, 0x73,
  0x69, 0x6f, 0x6e, 0x00, 0xb6, 0xce, 0xff, 0xff, 0x04, 0x00, 0x00, 0x00,
  0x10, 0x00, 0x00, 0x00, 0x31, 0x2e, 0x35, 0x2e, 0x30, 0x00, 0x00, 0x00,
  0x00, 0x00, 0x00, 0x00, 0x00, 0x00, 0x00, 0x00, 0x0f, 0x00, 0x00, 0x00,
  0x4d, 0x4c, 0x49, 0x52, 0x20, 0x43, 0x6f, 0x6e, 0x76, 0x65, 0x72, 0x74,
  0x65, 0x64, 0x2e, 0x00, 0x00, 0x00, 0x0e, 0x00, 0x18, 0x00, 0x04, 0x00,
  0x08, 0x00, 0x0c, 0x00, 0x10, 0x00, 0x14, 0x00, 0x0e, 0x00, 0x00, 0x00,
  0x14, 0x00, 0x00, 0x00, 0x5c, 0x00, 0x00, 0x00, 0x60, 0x00, 0x00, 0x00,
  0x64, 0x00, 0x00, 0x00, 0x84, 0x00, 0x00, 0x00, 0x12, 0x00, 0x00, 0x00,
  0x9c, 0x31, 0x00, 0x00, 0x2c, 0x31, 0x00, 0x00, 0x88, 0x30, 0x00, 0x00,
  0xe0, 0x2f, 0x00, 0x00, 0x38, 0x2f, 0x00, 0x00, 0xd4, 0x2e, 0x00, 0x00,
  0x6c, 0x2e, 0x00, 0x00, 0x18, 0x12, 0x00, 0x00, 0xbc, 0x10, 0x00, 0x00,
  0xe0, 0x0e, 0x00, 0x00, 0x0c, 0x06, 0x00, 0x00, 0x28, 0x05, 0x00, 0x00,
  0xe8, 0x03, 0x00, 0x00, 0x3c, 0x03, 0x00, 0x00, 0x98, 0x02, 0x00, 0x00,
  0xd4, 0x01, 0x00, 0x00, 0x10, 0x01, 0x00, 0x00, 0x84, 0x00, 0x00, 0x00,
  0x01, 0x00, 0x00, 0x00, 0x00, 0x00, 0x00, 0x00, 0x01, 0x00, 0x00, 0x00,
  0x11, 0x00, 0x00, 0x00, 0x08, 0x00, 0x00, 0x00, 0x74, 0x05, 0x00, 0x00,
  0x94, 0x04, 0x00, 0x00, 0x78, 0x03, 0x00, 0x00, 0xbc, 0x02, 0x00, 0x00,
  0x30, 0x02, 0x00, 0x00, 0x50, 0x01, 0x00, 0x00, 0xa8, 0x00, 0x00, 0x00,
  0x10, 0x00, 0x00, 0x00, 0x04, 0x00, 0x00, 0x00, 0x6d, 0x61, 0x69, 0x6e,
  0x00, 0x00, 0x00, 0x00, 0x7a, 0xff, 0xff, 0xff, 0x00, 0x00, 0x00, 0x09,
  0x04, 0x00, 0x00, 0x00, 0x1c, 0x00, 0x00, 0x00, 0x10, 0x00, 0x00, 0x00,
  0x04, 0x00, 0x00, 0x00, 0xb2, 0xcf, 0xff, 0xff, 0x00, 0x00, 0x80, 0x3f,
  0x01, 0x00, 0x00, 0x00, 0x11, 0x00, 0x00, 0x00, 0x01, 0x00, 0x00, 0x00,
  0x10, 0x00, 0x00, 0x00, 0xa0, 0xfa, 0xff, 0xff, 0x19, 0x00, 0x00, 0x00,
  0x00, 0x00, 0x00, 0x19, 0x01, 0x00, 0x00, 0x00, 0x40, 0xcf, 0xff, 0xff,
  0x14, 0x00, 0x00, 0x00, 0x12, 0x00, 0x00, 0x00, 0x18, 0x00, 0x00, 0x00,
  0x30, 0x00, 0x00, 0x00, 0x20, 0x00, 0x00, 0x00, 0x02, 0x00, 0x00, 0x00,
  0x01, 0x00, 0x00, 0x00, 0x04, 0x00, 0x00, 0x00, 0x08, 0x00, 0x00, 0x00,
  0x49, 0x64, 0x65, 0x6e, 0x74, 0x69, 0x74, 0x79, 0x00, 0x00, 0x00, 0x00,
  0x02, 0x00, 0x00, 0x00, 0xff, 0xff, 0xff, 0xff, 0x04, 0x00, 0x00, 0x00,
  0x24, 0xd0, 0xff, 0xff, 0x00, 0x00, 0x0e, 0x00, 0x18, 0x00, 0x08, 0x00,
  0x0c, 0x00, 0x10, 0x00, 0x07, 0x00, 0x14, 0x00, 0x0e, 0x00, 0x00, 0x00,
  0x00, 0x00, 0x00, 0x08, 0x03, 0x00, 0x00, 0x00, 0x18, 0x00, 0x00, 0x00,
  0x0c, 0x00, 0x00, 0x00, 0x04, 0x00, 0x00, 0x00, 0x40, 0xcf, 0xff, 0xff,
  0x01, 0x00, 0x00, 0x00, 0x10, 0x00, 0x00, 0x00, 0x03, 0x00, 0x00, 0x00,
  0x0f, 0x00, 0x00, 0x00, 0x07, 0x00, 0x00, 0x00, 0x04, 0x00, 0x00, 0x00,
  0xc8, 0xcf, 0xff, 0xff, 0x14, 0x00, 0x00, 0x00, 0x11, 0x00, 0x00, 0x00,
  0x18, 0x00, 0x00, 0x00, 0x5c, 0x00, 0x00, 0x00, 0x4c, 0x00, 0x00, 0x00,
  0x02, 0x00, 0x00, 0x00, 0x01, 0x00, 0x00, 0x00, 0x04, 0x00, 0x00, 0x00,
  0x34, 0x00, 0x00, 0x00, 0x73, 0x65, 0x71, 0x75, 0x65, 0x6e, 0x74, 0x69,
  0x61, 0x6c, 0x2f, 0x64, 0x65, 0x6e, 0x73, 0x65, 0x5f, 0x31, 0x2f, 0x4d,
  0x61, 0x74, 0x4d, 0x75, 0x6c, 0x3b, 0x73, 0x65, 0x71, 0x75, 0x65, 0x6e,
  0x74, 0x69, 0x61, 0x6c, 0x2f, 0x64, 0x65, 0x6e, 0x73, 0x65, 0x5f, 0x31,
  0x2f, 0x42, 0x69, 0x61, 0x73, 0x41, 0x64, 0x64, 0x00, 0x00, 0x00, 0x00,
  0x02, 0x00, 0x00, 0x00, 0xff, 0xff, 0xff, 0xff, 0x04, 0x00, 0x00, 0x00,
  0xc8, 0xcf, 0xff, 0xff, 0xda, 0xfc, 0xff, 0xff, 0x00, 0x00, 0x00, 0x08,
  0x03, 0x00, 0x00, 0x00, 0x24, 0x00, 0x00, 0x00, 0x18, 0x00, 0x00, 0x00,
  0x0c, 0x00, 0x00, 0x00, 0x00, 0x00, 0x06, 0x00, 0x08, 0x00, 0x07, 0x00,
  0x06, 0x00, 0x00, 0x00, 0x00, 0x00, 0x00, 0x01, 0x01, 0x00, 0x00, 0x00,
  0x0f, 0x00, 0x00, 0x00, 0x03, 0x00, 0x00, 0x00, 0x0e, 0x00, 0x00, 0x00,
  0x06, 0x00, 0x00, 0x00, 0x03, 0x00, 0x00, 0x00, 0xe8, 0xfb, 0xff, 0xff,
  0x09, 0x00, 0x00, 0x00, 0x00, 0x00, 0x00, 0x09, 0x01, 0x00, 0x00, 0x00,
  0x88, 0xd0, 0xff, 0xff, 0x14, 0x00, 0x00, 0x00, 0x10, 0x00, 0x00, 0x00,
  0x18, 0x00, 0x00, 0x00, 0x6c, 0x00, 0x00, 0x00, 0x5c, 0x00, 0x00, 0x00,
  0x02, 0x00, 0x00, 0x00, 0x01, 0x00, 0x00, 0x00, 0x10, 0x00, 0x00, 0x00,
  0x46, 0x00, 0x00, 0x00, 0x73, 0x65, 0x71, 0x75, 0x65, 0x6e, 0x74, 0x69,
  0x61, 0x6c, 0x2f, 0x64, 0x65, 0x6e, 0x73, 0x65, 0x2f, 0x4d, 0x61, 0x74,
  0x4d, 0x75, 0x6c, 0x3b, 0x73, 0x65, 0x71, 0x75, 0x65, 0x6e, 0x74, 0x69,
  0x61, 0x6c, 0x2f, 0x64, 0x65, 0x6e, 0x73, 0x65, 0x2f, 0x52, 0x65, 0x6c,
  0x75, 0x3b, 0x73, 0x65, 0x71, 0x75, 0x65, 0x6e, 0x74, 0x69, 0x61, 0x6c,
  0x2f, 0x64, 0x65, 0x6e, 0x73, 0x65, 0x2f, 0x42, 0x69, 0x61, 0x73, 0x41,
  0x64, 0x64, 0x00, 0x00, 0x02, 0x00, 0x00, 0x00, 0xff, 0xff, 0xff, 0xff,
  0x10, 0x00, 0x00, 0x00, 0xa8, 0xd1, 0xff, 0xff, 0x00, 0x00, 0x0a, 0x00,
  0x10, 0x00, 0x04, 0x00, 0x08, 0x00, 0x0c, 0x00, 0x0a, 0x00, 0x00, 0x00,
  0x02, 0x00, 0x00, 0x00, 0x10, 0x00, 0x00, 0x00, 0x04, 0x00, 0x00, 0x00,
  0x01, 0x00, 0x00, 0x00, 0x0e, 0x00, 0x00, 0x00, 0x02, 0x00, 0x00, 0x00,
  0x0d, 0x00, 0x00, 0x00, 0x05, 0x00, 0x00, 0x00, 0xa8, 0xfc, 0xff, 0xff,
  0x16, 0x00, 0x00, 0x00, 0x00, 0x00, 0x00, 0x16, 0x01, 0x00, 0x00, 0x00,
  0x48, 0xd1, 0xff, 0xff, 0x14, 0x00, 0x00, 0x00, 0x0f, 0x00, 0x00, 0x00,
  0x18, 0x00, 0x00, 0x00, 0x40, 0x00, 0x00, 0x00, 0x30, 0x00, 0x00, 0x00,
  0x02, 0x00, 0x00, 0x00, 0x01, 0x00, 0x00, 0x00, 0x70, 0x00, 0x00, 0x00,
  0x1a, 0x00, 0x00, 0x00, 0x73, 0x65, 0x71, 0x75, 0x65, 0x6e, 0x74, 0x69,
  0x61, 0x6c, 0x2f, 0x66, 0x6c, 0x61, 0x74, 0x74, 0x65, 0x6e, 0x2f, 0x52,
  0x65, 0x73, 0x68, 0x61, 0x70, 0x65, 0x00, 0x00, 0x02, 0x00, 0x00, 0x00,
  0xff, 0xff, 0xff, 0xff, 0x70, 0x00, 0x00, 0x00, 0x2c, 0xd1, 0xff, 0xff,
  0x3e, 0xfe, 0xff, 0xff, 0x00, 0x00, 0x00, 0x05, 0x01, 0x00, 0x00, 0x00,
  0x38, 0x00, 0x00, 0x00, 0x2c, 0x00, 0x00, 0x00, 0x14, 0x00, 0x00, 0x00,
  0x00, 0x00, 0x0e, 0x00, 0x14, 0x00, 0x00, 0x00, 0x10, 0x00, 0x0c, 0x00,
  0x08, 0x00, 0x04, 0x00, 0x0e, 0x00, 0x00, 0x00, 0x03, 0x00, 0x00, 0x00,
  0x01, 0x00, 0x00, 0x00, 0x03, 0x00, 0x00, 0x00, 0x01, 0x00, 0x00, 0x00,
  0x01, 0x00, 0x00, 0x00, 0x0d, 0x00, 0x00, 0x00, 0x01, 0x00, 0x00, 0x00,
  0x0c, 0x00, 0x00, 0x00, 0xe8, 0xd1, 0xff, 0xff, 0x14, 0x00, 0x00, 0x00,
  0x0e, 0x00, 0x00, 0x00, 0x20, 0x00, 0x00, 0x00, 0x58, 0x00, 0x00, 0x00,
  0x40, 0x00, 0x00, 0x00, 0x04, 0x00, 0x00, 0x00, 0x01, 0x00, 0x00, 0x00,
  0x07, 0x00, 0x00, 0x00, 0x01, 0x00, 0x00, 0x00, 0x10, 0x00, 0x00, 0x00,
  0x22, 0x00, 0x00, 0x00, 0x73, 0x65, 0x71, 0x75, 0x65, 0x6e, 0x74, 0x69,
  0x61, 0x6c, 0x2f, 0x6d, 0x61, 0x78, 0x5f, 0x70, 0x6f, 0x6f, 0x6c, 0x69,
  0x6e, 0x67, 0x32, 0x64, 0x5f, 0x31, 0x2f, 0x4d, 0x61, 0x78, 0x50, 0x6f,
  0x6f, 0x6c, 0x00, 0x00, 0x04, 0x00, 0x00, 0x00, 0xff, 0xff, 0xff, 0xff,
  0x07, 0x00, 0x00, 0x00, 0x01, 0x00, 0x00, 0x00, 0x10, 0x00, 0x00, 0x00,
  0xe4, 0xd1, 0xff, 0xff, 0x1a, 0xfe, 0xff, 0xff, 0x00, 0x00, 0x00, 0x01,
  0x24, 0x00, 0x00, 0x00, 0x18, 0x00, 0x00, 0x00, 0x04, 0x00, 0x00, 0x00,
  0x0c, 0xfe, 0xff, 0xff, 0x01, 0x00, 0x00, 0x00, 0x01, 0x00, 0x00, 0x00,
  0x00, 0x00, 0x00, 0x01, 0x01, 0x00, 0x00, 0x00, 0x0c, 0x00, 0x00, 0x00,
  0x03, 0x00, 0x00, 0x00, 0x0b, 0x00, 0x00, 0x00, 0x09, 0x00, 0x00, 0x00,
  0x02, 0x00, 0x00, 0x00, 0x90, 0xd2, 0xff, 0xff, 0x14, 0x00, 0x00, 0x00,
  0x0d, 0x00, 0x00, 0x00, 0x20, 0x00, 0x00, 0x00, 0xb8, 0x00, 0x00, 0x00,
  0xa0, 0x00, 0x00, 0x00, 0x04, 0x00, 0x00, 0x00, 0x01, 0x00, 0x00, 0x00,
  0x15, 0x00, 0x00, 0x00, 0x01, 0x00, 0x00, 0x00, 0x10, 0x00, 0x00, 0x00,
  0x83, 0x00, 0x00, 0x00, 0x73, 0x65, 0x71, 0x75, 0x65, 0x6e, 0x74, 0x69,
  0x61, 0x6c, 0x2f, 0x63, 0x6f, 0x6e, 0x76, 0x32, 0x64, 0x5f, 0x31, 0x2f,
  0x52, 0x65, 0x6c, 0x75, 0x3b, 0x73, 0x65, 0x71, 0x75, 0x65, 0x6e, 0x74,
  0x69, 0x61, 0x6c, 0x2f, 0x63, 0x6f, 0x6e, 0x76, 0x32, 0x64, 0x5f, 0x31,
  0x2f, 0x42, 0x69, 0x61, 0x73, 0x41, 0x64, 0x64, 0x3b, 0x73, 0x65, 0x71,
  0x75, 0x65, 0x6e, 0x74, 0x69, 0x61, 0x6c, 0x2f, 0x63, 0x6f, 0x6e, 0x76,
  0x32, 0x64, 0x5f, 0x31, 0x2f, 0x43, 0x6f, 0x6e, 0x76, 0x32, 0x44, 0x3b,
  0x73, 0x65, 0x71, 0x75, 0x65, 0x6e, 0x74, 0x69, 0x61, 0x6c, 0x2f, 0x63,
  0x6f, 0x6e, 0x76, 0x32, 0x64, 0x5f, 0x31, 0x2f, 0x42, 0x69, 0x61, 0x73,
  0x41, 0x64, 0x64, 0x2f, 0x52, 0x65, 0x61, 0x64, 0x56, 0x61, 0x72, 0x69,
  0x61, 0x62, 0x6c, 0x65, 0x4f, 0x70, 0x2f, 0x72, 0x65, 0x73, 0x6f, 0x75,
  0x72, 0x63, 0x65, 0x00, 0x04, 0x00, 0x00, 0x00, 0xff, 0xff, 0xff, 0xff,
  0x15, 0x00, 0x00, 0x00, 0x01, 0x00, 0x00, 0x00, 0x10, 0x00, 0x00, 0x00,
  0xfc, 0xd3, 0xff, 0xff, 0x00, 0x00, 0x0e, 0x00, 0x1a, 0x00, 0x08, 0x00,
  0x0c, 0x00, 0x10, 0x00, 0x07, 0x00, 0x14, 0x00, 0x0e, 0x00, 0x00, 0x00,
  0x00, 0x00, 0x00, 0x05, 0x01, 0x00, 0x00, 0x00, 0x3c, 0x00, 0x00, 0x00,
  0x30, 0x00, 0x00, 0x00, 0x14, 0x00, 0x00, 0x00, 0x00, 0x00, 0x0e, 0x00,
  0x18, 0x00, 0x17, 0x00, 0x10, 0x00, 0x0c, 0x00, 0x08, 0x00, 0x04, 0x00,
  0x0e, 0x00, 0x00, 0x00, 0x03, 0x00, 0x00, 0x00, 0x03, 0x00, 0x00, 0x00,
  0x03, 0x00, 0x00, 0x00, 0x03, 0x00, 0x00, 0x00, 0x00, 0x00, 0x00, 0x01,
  0x01, 0x00, 0x00, 0x00, 0x0b, 0x00, 0x00, 0x00, 0x01, 0x00, 0x00, 0x00,
  0x0a, 0x00, 0x00, 0x00, 0x2c, 0xff, 0xff, 0xff, 0x11, 0x00, 0x00, 0x00,
  0x00, 0x00, 0x00, 0x11, 0x01, 0x00, 0x00, 0x00, 0xcc, 0xd3, 0xff, 0xff,
  0x14, 0x00, 0x00, 0x00, 0x0c, 0x00, 0x00, 0x00, 0x20, 0x00, 0x00, 0x00,
  0x58, 0x00, 0x00, 0x00, 0x40, 0x00, 0x00, 0x00, 0x04, 0x00, 0x00, 0x00,
  0x01, 0x00, 0x00, 0x00, 0x15, 0x00, 0x00, 0x00, 0x01, 0x00, 0x00, 0x00,
  0x08, 0x00, 0x00, 0x00, 0x20, 0x00, 0x00, 0x00, 0x73, 0x65, 0x71, 0x75,
  0x65, 0x6e, 0x74, 0x69, 0x61, 0x6c, 0x2f, 0x6d, 0x61, 0x78, 0x5f, 0x70,
  0x6f, 0x6f, 0x6c, 0x69, 0x6e, 0x67, 0x32, 0x64, 0x2f, 0x4d, 0x61, 0x78,
  0x50, 0x6f, 0x6f, 0x6c, 0x00, 0x00, 0x00, 0x00, 0x04, 0x00, 0x00, 0x00,
  0xff, 0xff, 0xff, 0xff, 0x15, 0x00, 0x00, 0x00, 0x01, 0x00, 0x00, 0x00,
  0x08, 0x00, 0x00, 0x00, 0xd8, 0xd4, 0xff, 0xff, 0x00, 0x00, 0x0e, 0x00,
  0x14, 0x00, 0x00, 0x00, 0x08, 0x00, 0x0c, 0x00, 0x07, 0x00, 0x10, 0x00,
  0x0e, 0x00, 0x00, 0x00, 0x00, 0x00, 0x00, 0x01, 0x30, 0x00, 0x00, 0x00,
  0x24, 0x00, 0x00, 0x00, 0x10, 0x00, 0x00, 0x00, 0x0c, 0x00, 0x10, 0x00,
  0x00, 0x00, 0x04, 0x00, 0x08, 0x00, 0x0f, 0x00, 0x0c, 0x00, 0x00, 0x00,
  0x01, 0x00, 0x00, 0x00, 0x01, 0x00, 0x00, 0x00, 0x00, 0x00, 0x00, 0x01,
  0x01, 0x00, 0x00, 0x00, 0x0a, 0x00, 0x00, 0x00, 0x03, 0x00, 0x00, 0x00,
  0x00, 0x00, 0x00, 0x00, 0x08, 0x00, 0x00, 0x00, 0x01, 0x00, 0x00, 0x00,
  0x0c, 0x00, 0x10, 0x00, 0x0b, 0x00, 0x00, 0x00, 0x0c, 0x00, 0x04, 0x00,
  0x0c, 0x00, 0x00, 0x00, 0x03, 0x00, 0x00, 0x00, 0x00, 0x00, 0x00, 0x03,
  0x01, 0x00, 0x00, 0x00, 0xac, 0xd4, 0xff, 0xff, 0x14, 0x00, 0x00, 0x00,
  0x0b, 0x00, 0x00, 0x00, 0x20, 0x00, 0x00, 0x00, 0xb0, 0x00, 0x00, 0x00,
  0x98, 0x00, 0x00, 0x00, 0x04, 0x00, 0x00, 0x00, 0x01, 0x00, 0x00, 0x00,
  0x40, 0x00, 0x00, 0x00, 0x03, 0x00, 0x00, 0x00, 0x08, 0x00, 0x00, 0x00,
  0x7b, 0x00, 0x00, 0x00, 0x73, 0x65, 0x71, 0x75, 0x65, 0x6e, 0x74, 0x69,
  0x61, 0x6c, 0x2f, 0x63, 0x6f, 0x6e, 0x76, 0x32, 0x64, 0x2f, 0x52, 0x65,
  0x6c, 0x75, 0x3b, 0x73, 0x65, 0x71, 0x75, 0x65, 0x6e, 0x74, 0x69, 0x61,
  0x6c, 0x2f, 0x63, 0x6f, 0x6e, 0x76, 0x32, 0x64, 0x2f, 0x42, 0x69, 0x61,
  0x73, 0x41, 0x64, 0x64, 0x3b, 0x73, 0x65, 0x71, 0x75, 0x65, 0x6e, 0x74,
  0x69, 0x61, 0x6c, 0x2f, 0x63, 0x6f, 0x6e, 0x76, 0x32, 0x64, 0x2f, 0x43,
  0x6f, 0x6e, 0x76, 0x32, 0x44, 0x3b, 0x73, 0x65, 0x71, 0x75, 0x65, 0x6e,
  0x74, 0x69, 0x61, 0x6c, 0x2f, 0x63, 0x6f, 0x6e, 0x76, 0x32, 0x64, 0x2f,
  0x42, 0x69, 0x61, 0x73, 0x41, 0x64, 0x64, 0x2f, 0x52, 0x65, 0x61, 0x64,
  0x56, 0x61, 0x72, 0x69, 0x61, 0x62, 0x6c, 0x65, 0x4f, 0x70, 0x2f, 0x72,
  0x65, 0x73, 0x6f, 0x75, 0x72, 0x63, 0x65, 0x00, 0x04, 0x00, 0x00, 0x00,
  0xff, 0xff, 0xff, 0xff, 0x40, 0x00, 0x00, 0x00, 0x03, 0x00, 0x00, 0x00,
  0x08, 0x00, 0x00, 0x00, 0x00, 0xd5, 0xff, 0xff, 0x0a, 0xd6, 0xff, 0xff,
  0x04, 0x00, 0x00, 0x00, 0x00, 0x08, 0x00, 0x00, 0x69, 0x76, 0xef, 0x3d,
  0x70, 0x3f, 0x09, 0xbe, 0x06, 0x6e, 0x03, 0xbf, 0xac, 0xa3, 0xb5, 0xbe,
  0x6c, 0x80, 0x39, 0x3e, 0xa6, 0xcc, 0x90, 0x3d, 0xfb, 0xe4, 0x15, 0x3d,
  0x89, 0x2c, 0xe1, 0x3e, 0x70, 0xe5, 0x95, 0x3d, 0x68, 0x00, 0xcf, 0x3c,
  0x57, 0x71, 0x97, 0xbe, 0x33, 0xcb, 0x7d, 0xbe, 0x87, 0x5a, 0xf8, 0x3d,
  0x65, 0x7d, 0x4e, 0x3d, 0xfa, 0x00, 0x01, 0xbe, 0x0e, 0x9b, 0xca, 0x3d,
  0x1a, 0xff, 0xf7, 0xbd, 0x83, 0x93, 0xb2, 0xbe, 0x4b, 0x24, 0xe4, 0xbd,
  0x9a, 0xda, 0x89, 0xbe, 0xc3, 0x83, 0x2b, 0x3e, 0xbf, 0x3e, 0x0b, 0xbe,
  0x6c, 0xc0, 0x81, 0xbe, 0x51, 0x5b, 0xeb, 0x3d, 0xfd, 0xf3, 0x74, 0xbe,
  0x77, 0x02, 0x0c, 0xbe, 0xaa, 0x3b, 0xd2, 0x3c, 0xa8, 0xcc, 0xe7, 0x3d,
  0x11, 0x07, 0x07, 0x3d, 0x40, 0xc6, 0x60, 0xbe, 0x41, 0xc1, 0x87, 0xbe,
  0x92, 0xcd, 0x41, 0x3e, 0x90, 0xfa, 0x81, 0xbe, 0x66, 0x03, 0x90, 0x3c,
  0xfe, 0x5d, 0xe0, 0x3d, 0xdb, 0x63, 0xb1, 0x3c, 0x1f, 0x4b, 0x12, 0x3e,
  0xbc, 0xee, 0x86, 0xbe, 0xd7, 0x47, 0x97, 0x3e, 0xf6, 0x08, 0xa8, 0x3e,
  0xf3, 0x06, 0xaa, 0xbe, 0x94, 0xa9, 0x77, 0xbc, 0xd4, 0x32, 0xb9, 0xbd,
  0x79, 0x5f, 0x8b, 0x3d, 0x9a, 0xd8, 0x2b, 0x3d, 0x19, 0x9f, 0x05, 0xbf,
  0x99, 0x77, 0xa5, 0xbd, 0x8a, 0xa8, 0xaf, 0x3d, 0x50, 0x34, 0xdb, 0xbd,
  0x02, 0xd1, 0xe9, 0xbd, 0x1d, 0x8f, 0x91, 0xbc, 0xeb, 0x20, 0xb6, 0xbd,
  0x34, 0x7f, 0x9a, 0x3c, 0xaf, 0x4f, 0xcf, 0xbe, 0x30, 0x3c, 0x45, 0x3e,
  0xdf, 0xbb, 0x28, 0x3e, 0xdb, 0x41, 0x89, 0xbe, 0xfd, 0x24, 0xa5, 0xbd,
  0x0e, 0x59, 0x7d, 0x3e, 0x4d, 0x74, 0xae, 0x3b, 0xb4, 0x10, 0xa9, 0x3d,
  0xda, 0x8c, 0xda, 0xbe, 0x2a, 0xa7, 0xf0, 0x3d, 0x2f, 0x0f, 0x6a, 0x3e,
  0xdc, 0x8e, 0xbc, 0xbd, 0xc9, 0x4e, 0x9d, 0x3e, 0x0b, 0x6e, 0x29, 0x3e,
  0x70, 0xb6, 0x6d, 0x3e, 0x03, 0x4b, 0x6a, 0x3b, 0x34, 0x75, 0x2a, 0xbd,
  0xc5, 0xd0, 0xaa, 0x3d, 0xdb, 0x2f, 0xa8, 0xbd, 0x03, 0x0a, 0xb6, 0xbd,
  0x9a, 0x28, 0xb7, 0x3e, 0xea, 0x2b, 0x02, 0xbc, 0x51, 0xee, 0x16, 0xbe,
  0xa1, 0x0b, 0x7a, 0xbe, 0xdc, 0xe2, 0x94, 0xbc, 0x09, 0x99, 0x17, 0x3c,
  0xa1, 0xa2, 0x54, 0x3e, 0xa9, 0xcc, 0x43, 0xbd, 0x7f, 0x03, 0x1f, 0xbe,
  0xbb, 0xc1, 0x9e, 0xbe, 0xe9, 0xc0, 0x85, 0xbe, 0xc4, 0x71, 0x7f, 0x3e,
  0x12, 0x2d, 0x0f, 0x3d, 0x63, 0xac, 0x04, 0xbd, 0x9f, 0xac, 0xe9, 0x3e,
  0x87, 0x0c, 0xf4, 0xbb, 0x9b, 0xb8, 0x2f, 0xbe, 0x34, 0xf7, 0xaa, 0xbe,
  0x86, 0xf0, 0x76, 0xbe, 0xc6, 0x57, 0x91, 0x3c, 0xc5, 0x80, 0x82, 0x3d,
  0xd8, 0x5d, 0xb0, 0xbd, 0x16, 0x70, 0x5d, 0x3e, 0xbe, 0x36, 0xa5, 0x3d,
  0x42, 0x11, 0xdd, 0xbe, 0xdf, 0xa9, 0x25, 0xbe, 0xc9, 0x8a, 0x80, 0xbd,
  0x0b, 0xba, 0x5f, 0x3d, 0x81, 0x4f, 0x20, 0xbd, 0x68, 0x2e, 0x7a, 0x3d,
  0x62, 0x2b, 0x8e, 0xbe, 0x11, 0x35, 0x24, 0xbb, 0xd8, 0x7c, 0x9c, 0xbe,
  0x4b, 0x84, 0xc9, 0xbd, 0x13, 0xef, 0xf3, 0x3d, 0x85, 0xd1, 0x0c, 0x3d,
  0x32, 0xf7, 0x14, 0xbd, 0xad, 0xc8, 0x7c, 0x3e, 0x9b, 0xcb, 0x06, 0xbd,
  0x27, 0x33, 0x06, 0x3e, 0xd9, 0x18, 0xc0, 0xbe, 0xf4, 0xa3, 0xb7, 0xbd,
  0x52, 0x19, 0x06, 0xbd, 0x30, 0xc2, 0x21, 0x3d, 0x1e, 0x39, 0xd6, 0xbd,
  0xf3, 0x55, 0x05, 0xbe, 0xf9, 0x63, 0x5f, 0xbe, 0x2d, 0x68, 0x01, 0x3e,
  0x75, 0x03, 0x84, 0xbe, 0x40, 0x94, 0xa6, 0xbc, 0xab, 0x8e, 0x35, 0xbe,
  0x90, 0xf8, 0x8c, 0x3d, 0x7e, 0xbb, 0x0a, 0x3e, 0x5e, 0xfe, 0x98, 0xbd,
  0xeb, 0x44, 0x8c, 0xbe, 0x17, 0x50, 0x2b, 0xbf, 0xcc, 0xb5, 0xf3, 0x3e,
  0x99, 0x23, 0xc3, 0x3e, 0x96, 0x86, 0x0b, 0x3e, 0xab, 0xee, 0x1d, 0x3f,
  0x00, 0x87, 0x03, 0xbf, 0x49, 0x34, 0xfb, 0xbd, 0xea, 0xda, 0x36, 0x3e,
  0x04, 0xcc, 0xca, 0xbe, 0xce, 0x5b, 0x12, 0x3d, 0xe8, 0x04, 0x0a, 0xbd,
  0x43, 0x5c, 0x2c, 0xbe, 0x6e, 0x70, 0x75, 0xbe, 0x4d, 0x1c, 0xd5, 0xbe,
  0xd2, 0xe9, 0x80, 0x3e, 0xf6, 0x90, 0x2f, 0xbe, 0xe6, 0x0a, 0xe0, 0xbc,
  0x6b, 0x75, 0x5b, 0x3c, 0x12, 0x2e, 0x39, 0xbe, 0xfd, 0xa0, 0xd7, 0xbd,
  0x51, 0x64, 0x2f, 0x3e, 0x4e, 0x5b, 0x3f, 0xbe, 0xbb, 0x4c, 0x94, 0x3e,
  0x4c, 0x3e, 0x70, 0xbd, 0xca, 0x0e, 0x2e, 0xbe, 0xbc, 0x2c, 0x0e, 0xbe,
  0x23, 0xe9, 0x86, 0xbe, 0x19, 0xc1, 0x1d, 0xbe, 0xdd, 0x58, 0x9b, 0x3e,
  0xac, 0xae, 0x29, 0xbe, 0x5e, 0x73, 0x2e, 0x3e, 0x9a, 0x60, 0x6e, 0x3e,
  0x61, 0xe6, 0x04, 0xbf, 0x71, 0x52, 0xbd, 0x3c, 0xce, 0xbe, 0x85, 0xbc,
  0xdd, 0x51, 0x7e, 0xba, 0x54, 0x9e, 0x00, 0x3f, 0xeb, 0xc4, 0xb0, 0xbe,
  0x7c, 0x1a, 0xec, 0x3c, 0x8b, 0x6e, 0x20, 0x3c, 0xce, 0xa9, 0xea, 0xbe,
  0x8f, 0xf5, 0xba, 0x3e, 0xe6, 0xab, 0x01, 0x3b, 0xc9, 0x84, 0x4b, 0x3e,
  0xcc, 0xff, 0x0b, 0x3d, 0x18, 0x9a, 0x76, 0xbe, 0x81, 0x51, 0x41, 0xbe,
  0x4b, 0x72, 0x67, 0x3b, 0x0e, 0xb2, 0x79, 0xbe, 0xa0, 0x47, 0xa4, 0x3d,
  0xbc, 0xe5, 0x07, 0x3e, 0x11, 0xfb, 0x0f, 0xbd, 0x21, 0x02, 0x20, 0x3e,
  0xf3, 0x3c, 0x6e, 0xbe, 0x10, 0x82, 0xc0, 0x3c, 0xda, 0xd9, 0x0b, 0x3e,
  0x90, 0x0a, 0x83, 0xbd, 0x14, 0x44, 0x39, 0x3e, 0x6e, 0x69, 0x33, 0xbe,
  0xff, 0x96, 0xe7, 0xbd, 0x6f, 0x85, 0x3c, 0x3e, 0x47, 0xed, 0x1e, 0xbe,
  0x08, 0x0b, 0xbb, 0x3e, 0x62, 0xf1, 0x35, 0x3d, 0xd0, 0x4e, 0xf7, 0x3c,
  0x6c, 0x0b, 0x16, 0x3f, 0x63, 0x39, 0x95, 0xbe, 0x01, 0x03, 0x84, 0xbe,
  0x76, 0xc1, 0x93, 0x3e, 0x3a, 0x33, 0x98, 0x3d, 0x08, 0x0c, 0x36, 0x3d,
  0x13, 0xee, 0xe4, 0x3e, 0xc1, 0x12, 0xf3, 0x3d, 0x05, 0x00, 0x03, 0xbe,
  0x43, 0xc5, 0x89, 0xbe, 0xf0, 0x54, 0xe5, 0xbd, 0x7c, 0x56, 0x8f, 0x3e,
  0xbe, 0xa2, 0xd6, 0xbc, 0xe0, 0x66, 0xaa, 0xbd, 0xa9, 0x80, 0x34, 0x3e,
  0x0e, 0x63, 0x0a, 0xbe, 0xda, 0xaa, 0x82, 0xbe, 0x66, 0xe0, 0x3d, 0xbd,
  0xea, 0xb8, 0x8d, 0xbc, 0x6e, 0xf4, 0xce, 0x3c, 0xbc, 0x49, 0x28, 0xbe,
  0xd9, 0x0f, 0x21, 0xbe, 0x70, 0xd4, 0xc0, 0x3e, 0xb1, 0xaa, 0xa3, 0xbd,
  0x5a, 0xda, 0xa3, 0xbe, 0xcb, 0xc7, 0x41, 0x3d, 0x67, 0x3a, 0x40, 0x3c,
  0xcb, 0x97, 0x97, 0xbc, 0x3b, 0xbe, 0x4c, 0xbe, 0x0d, 0x76, 0x3f, 0xbe,
  0x15, 0x10, 0x08, 0x3e, 0xe3, 0xf2, 0x64, 0x3e, 0x1a, 0x5a, 0x99, 0xbc,
  0x54, 0x46, 0x5a, 0xbd, 0x64, 0xfa, 0x0f, 0xbe, 0x23, 0x9d, 0xdb, 0x3c,
  0x1a, 0xee, 0xa2, 0x3e, 0x7f, 0x86, 0xb7, 0xbb, 0xb9, 0x2c, 0xf7, 0x3e,
  0x07, 0x1a, 0xc7, 0xbd, 0x9d, 0x73, 0x13, 0xbc, 0x04, 0xaf, 0x90, 0xbd,
  0xa8, 0x70, 0x41, 0xbe, 0xb8, 0xcd, 0xd0, 0xbe, 0x58, 0x0a, 0x39, 0xbd,
  0xab, 0xdd, 0x51, 0x3d, 0x07, 0x32, 0x8c, 0xbd, 0xa2, 0x5e, 0x77, 0xbd,
  0x51, 0x22, 0x33, 0x3e, 0xfa, 0x4e, 0x2e, 0xbd, 0x7b, 0xee, 0x48, 0xbe,
  0x2b, 0x8e, 0x6f, 0xbe, 0xa6, 0x1c, 0xbc, 0x3d, 0xbd, 0x57, 0x07, 0xbe,
  0x70, 0x72, 0x2d, 0xbe, 0x45, 0x68, 0x20, 0xbe, 0xeb, 0x69, 0xf8, 0x3d,
  0x5d, 0x8a, 0xdb, 0x3c, 0x56, 0x6f, 0x14, 0xbe, 0x7f, 0x1c, 0xc0, 0xbe,
  0xc7, 0x9c, 0x15, 0x3e, 0xda, 0x0e, 0x37, 0xbe, 0xc6, 0x61, 0x99, 0xbe,
  0x08, 0xa7, 0x7e, 0xbe, 0x3a, 0x00, 0xb1, 0xbe, 0x06, 0x6d, 0xc1, 0xbc,
  0xdd, 0xf1, 0xc9, 0x3d, 0xcc, 0xab, 0xb3, 0xbe, 0xfe, 0xac, 0x87, 0xbe,
  0x2f, 0x01, 0xf6, 0xbd, 0x10, 0xba, 0xef, 0xbe, 0x10, 0x42, 0xfc, 0x3d,
  0xf3, 0xeb, 0xc5, 0xbd, 0xc3, 0xe1, 0x23, 0x3d, 0x5e, 0xb5, 0x50, 0xbd,
  0x7b, 0xe6, 0x29, 0xbd, 0xa2, 0x04, 0xdb, 0x3d, 0xd8, 0xd1, 0x2b, 0x3e,
  0x1f, 0xc5, 0xd5, 0x3d, 0x15, 0xfb, 0x46, 0x3d, 0xf6, 0xbf, 0x8b, 0xbe,
  0xbd, 0xca, 0xa3, 0xbd, 0x14, 0xf4, 0xbf, 0xbc, 0xdb, 0x91, 0xec, 0xbe,
  0x62, 0xb8, 0xff, 0x3d, 0x76, 0xa2, 0x30, 0xbd, 0xe0, 0x61, 0x41, 0xbf,
  0x97, 0xda, 0x13, 0x3d, 0x56, 0x27, 0x5d, 0xbe, 0x99, 0x38, 0x8a, 0x3c,
  0x16, 0x0b, 0x77, 0x3e, 0x73, 0x32, 0x5d, 0x3e, 0xe9, 0x0e, 0x1f, 0x3d,
  0x08, 0x2f, 0x28, 0x3e, 0x58, 0x1d, 0x23, 0x3d, 0xa3, 0x69, 0x5d, 0xbd,
  0xb8, 0xf4, 0xaa, 0x3c, 0xef, 0xc9, 0xc9, 0xbe, 0x24, 0x6a, 0x80, 0xbe,
  0x84, 0xd6, 0xb0, 0xbc, 0xc2, 0xfb, 0xf0, 0xbc, 0xfa, 0x06, 0x63, 0xbb,
  0xe2, 0x47, 0x19, 0x3f, 0x09, 0x5c, 0x63, 0xbe, 0xc0, 0x05, 0x6d, 0x3e,
  0x77, 0x60, 0x16, 0xbf, 0xc3, 0xc2, 0x12, 0xbf, 0x49, 0x89, 0x9d, 0x3e,
  0x05, 0x57, 0xfe, 0xbd, 0xba, 0x43, 0x07, 0xbd, 0xe4, 0xd3, 0x6f, 0x3e,
  0x0d, 0x15, 0x79, 0x3e, 0x7c, 0xc5, 0x62, 0x3d, 0x02, 0x6e, 0xea, 0xbe,
  0x77, 0xf3, 0xc4, 0xbe, 0xf6, 0xd5, 0x1b, 0x3e, 0xe7, 0x7c, 0xa3, 0xbd,
  0xd3, 0x4e, 0xe6, 0xbd, 0xd8, 0xf7, 0x8a, 0x3d, 0xb7, 0x73, 0xdc, 0xbd,
  0xeb, 0xe7, 0x66, 0x3d, 0xa2, 0xaf, 0x9b, 0xbe, 0xd4, 0xd8, 0x95, 0xbd,
  0xe2, 0x7c, 0x6b, 0x3e, 0xe9, 0x8b, 0xad, 0xbd, 0x44, 0x3a, 0xa5, 0xbe,
  0xde, 0x27, 0x1c, 0x3e, 0xa7, 0x70, 0xd9, 0xbd, 0x0d, 0xea, 0x0c, 0xbe,
  0x94, 0xff, 0x4e, 0xbd, 0x14, 0xbf, 0xb2, 0xbc, 0xb3, 0x19, 0x5f, 0xbe,
  0xee, 0xdd, 0x65, 0xbd, 0x77, 0x68, 0x7e, 0xbe, 0x31, 0x13, 0x08, 0x3c,
  0x73, 0xef, 0xd5, 0xbd, 0xf7, 0x3c, 0x83, 0xbd, 0xb4, 0xc9, 0x14, 0xbd,
  0xf8, 0xcf, 0x2a, 0xbd, 0x66, 0x57, 0x9d, 0xbe, 0x9e, 0xd1, 0x01, 0xbd,
  0xf4, 0x7c, 0x5a, 0xbe, 0xf1, 0x18, 0x1b, 0xbd, 0xf3, 0x22, 0x68, 0xbd,
  0x04, 0xcd, 0x8a, 0xbd, 0x74, 0x11, 0x51, 0xbc, 0xd9, 0x89, 0xea, 0xbc,
  0x6a, 0x1e, 0x2d, 0x3f, 0x4e, 0x74, 0xf7, 0xbb, 0x80, 0x8c, 0x40, 0xbe,
  0x31, 0xf1, 0x0d, 0x3f, 0xa4, 0x54, 0xa9, 0x3d, 0x83, 0xb8, 0xb2, 0x3e,
  0x40, 0xfb, 0x21, 0x3c, 0x33, 0xc3, 0x6c, 0xbc, 0x0d, 0x2a, 0x7b, 0x3f,
  0xb8, 0x28, 0xa9, 0x3d, 0xa7, 0x34, 0x8d, 0x3e, 0x1e, 0xf4, 0x76, 0x3e,
  0x93, 0x1c, 0x95, 0xbd, 0xe1, 0x1e, 0xf4, 0xbd, 0xa6, 0x9e, 0xa8, 0xbd,
  0xa1, 0xd9, 0xcb, 0xbd, 0xdb, 0xab, 0x0f, 0x3d, 0x13, 0x58, 0x8d, 0xbd,
  0xc7, 0x7b, 0x45, 0xbe, 0x6e, 0x5c, 0x0a, 0x3f, 0xa7, 0x15, 0x55, 0x3c,
  0x41, 0x75, 0x74, 0x3c, 0x18, 0x91, 0x8b, 0xbd, 0xef, 0x56, 0xca, 0xbd,
  0x17, 0x35, 0xe8, 0x3c, 0xd9, 0x72, 0x13, 0x3f, 0x86, 0x94, 0x56, 0xbd,
  0x2c, 0x43, 0x05, 0xbd, 0x81, 0x49, 0x0a, 0xbd, 0xf1, 0xf5, 0x19, 0x3d,
  0xc0, 0xf7, 0x86, 0xbd, 0x9e, 0xfd, 0xc1, 0xbd, 0x44, 0xbc, 0x2d, 0xbe,
  0x0a, 0x43, 0xa7, 0xbd, 0x63, 0x79, 0xed, 0x3c, 0x83, 0xa2, 0x6e, 0x3d,
  0xdd, 0x41, 0x2b, 0xbd, 0x20, 0x14, 0x25, 0xbd, 0x62, 0xfc, 0x8e, 0xbd,
  0xdb, 0xf2, 0xaf, 0xbd, 0xf4, 0xae, 0x38, 0xbe, 0x73, 0xff, 0xa4, 0xbd,
  0x2b, 0xfc, 0xf9, 0x3c, 0xa0, 0x35, 0xc5, 0x3c, 0x6e, 0x2b, 0xf1, 0xbd,
  0x9b, 0x4a, 0x35, 0xbd, 0x10, 0xdd, 0xfb, 0xbc, 0x52, 0x06, 0xd9, 0xbb,
  0x3c, 0x27, 0x96, 0x3e, 0x29, 0xe5, 0x24, 0xbe, 0x6d, 0xcb, 0xa3, 0xbe,
  0x8c, 0x4c, 0x5d, 0x3e, 0x6f, 0x8a, 0xa2, 0xbe, 0xca, 0x32, 0x64, 0x3d,
  0x57, 0x39, 0xf5, 0xbd, 0x9a, 0x85, 0xeb, 0xbc, 0x32, 0x9b, 0x55, 0x3f,
  0xb8, 0x17, 0x85, 0xbe, 0x30, 0x1c, 0x44, 0xbe, 0x19, 0x0f, 0x13, 0x3c,
  0xf1, 0x99, 0x83, 0xbe, 0x54, 0x40, 0x81, 0x3e, 0xe5, 0xce, 0x25, 0xbd,
  0x0d, 0x04, 0x3d, 0xbd, 0x3e, 0x29, 0xe3, 0x3e, 0xad, 0x21, 0x51, 0xbe,
  0x90, 0xc0, 0x08, 0x3f, 0x9d, 0xf0, 0x65, 0x3d, 0x42, 0x63, 0x3f, 0xbe,
  0x9a, 0x87, 0x78, 0xbe, 0x91, 0x76, 0x05, 0xbe, 0xda, 0x63, 0x1f, 0xbd,
  0x42, 0x76, 0x2e, 0x3e, 0xf0, 0xe1, 0x53, 0xbe, 0xd2, 0xff, 0x04, 0xbe,
  0x72, 0x12, 0xd2, 0xbd, 0xe9, 0x37, 0x23, 0xbe, 0xe3, 0x6a, 0x07, 0xbf,
  0x9a, 0x7e, 0x31, 0xbe, 0x77, 0x52, 0xbc, 0x3d, 0xe9, 0xf2, 0x4b, 0xbf,
  0xad, 0xf4, 0x52, 0xbe, 0x7b, 0xfa, 0x40, 0xbe, 0xad, 0x72, 0x83, 0xbf,
  0xe0, 0x77, 0xc9, 0xbc, 0xf7, 0x31, 0x19, 0xbd, 0x10, 0x50, 0xaf, 0xbe,
  0x39, 0x93, 0x8e, 0xbd, 0x60, 0xd8, 0xb4, 0xbe, 0x3f, 0x7b, 0xf5, 0xbd,
  0x24, 0xdd, 0xcc, 0x3d, 0x99, 0x52, 0xc0, 0x3c, 0x45, 0x80, 0x19, 0xbd,
  0x52, 0x57, 0x0b, 0x3d, 0x5e, 0x3a, 0x80, 0xbe, 0xbf, 0x36, 0x1a, 0x3d,
  0x26, 0x48, 0x0a, 0x3e, 0x18, 0xb1, 0xb0, 0x3c, 0xe8, 0xc9, 0x69, 0x3d,
  0x65, 0xc6, 0xd0, 0x3e, 0x68, 0x6b, 0x26, 0x3d, 0xcf, 0x50, 0x58, 0x3e,
  0x7a, 0xe7, 0x6b, 0xbd, 0x93, 0x7d, 0x12, 0x3a, 0x9f, 0x0e, 0xc5, 0x3e,
  0xb9, 0x84, 0x24, 0x3e, 0x10, 0x45, 0x9a, 0xbd, 0xe5, 0xfa, 0x40, 0x3e,
  0xcc, 0x1c, 0x52, 0xbe, 0xb8, 0xa1, 0x42, 0x3e, 0x01, 0xd6, 0x4c, 0xbe,
  0x2f, 0x5b, 0xde, 0xbd, 0x3c, 0xfa, 0xa4, 0xbd, 0x3a, 0x66, 0x36, 0x3e,
  0x68, 0x76, 0xed, 0xbe, 0x63, 0x66, 0x08, 0xbe, 0x94, 0xb4, 0x0e, 0xbe,
  0x01, 0x54, 0x92, 0x3e, 0xd8, 0x2e, 0x8d, 0x3e, 0x24, 0xa6, 0x2b, 0xbc,
  0x77, 0x64, 0x50, 0x3e, 0x72, 0x35, 0xf7, 0xbd, 0x37, 0x1b, 0x7f, 0xbe,
  0x6f, 0x94, 0x61, 0xbd, 0x1f, 0xa1, 0x06, 0xbe, 0x56, 0x2a, 0x32, 0x3e,
  0xb9, 0xc3, 0x52, 0x3e, 0x53, 0x5e, 0xd7, 0xbd, 0x2c, 0xbb, 0x86, 0xbe,
  0x7e, 0xed, 0xcd, 0xbd, 0xe3, 0xa1, 0x2d, 0x3e, 0x2e, 0x30, 0x36, 0xbe,
  0x58, 0xbb, 0x01, 0xbd, 0x7d, 0x88, 0x01, 0x3d, 0x05, 0x05, 0xa0, 0xbd,
  0xf1, 0x6e, 0x4a, 0xbe, 0x9c, 0x4c, 0x40, 0x3e, 0xbe, 0x64, 0x86, 0x3e,
  0xf0, 0x93, 0xf5, 0xbc, 0x8b, 0x8c, 0x15, 0xbe, 0x18, 0x01, 0xc3, 0xbd,
  0xc0, 0x00, 0xb3, 0xbe, 0x50, 0x55, 0x33, 0x3d, 0xed, 0x99, 0x24, 0xbe,
  0xf1, 0x20, 0xf3, 0x3c, 0x7a, 0xe6, 0x91, 0xbe, 0x3f, 0x3f, 0x8c, 0x3c,
  0x29, 0xe4, 0x33, 0xbe, 0x3b, 0x5a, 0x96, 0xbe, 0x03, 0x8f, 0x98, 0xbc,
  0xf9, 0xc9, 0xaa, 0xbe, 0x0d, 0x5b, 0x85, 0xbe, 0x6f, 0x18, 0x43, 0xbc,
  0x7f, 0x60, 0xa6, 0xbd, 0x61, 0xa7, 0xa0, 0xbe, 0x9d, 0x8f, 0x9e, 0xbe,
  0x0f, 0xce, 0x62, 0xbd, 0x99, 0xc6, 0x5d, 0xbe, 0x2c, 0x26, 0x19, 0x3d,
  0xc4, 0x3a, 0x50, 0xbd, 0xa8, 0x8b, 0x66, 0xbe, 0x83, 0x94, 0x52, 0xbe,
  0xc8, 0xbd, 0x6d, 0xbe, 0x1a, 0xd7, 0x98, 0xbe, 0x3f, 0xd9, 0x22, 0xbe,
  0xa0, 0x6f, 0xc0, 0x3d, 0x18, 0xda, 0x05, 0xbe, 0xb2, 0x56, 0x3c, 0x3d,
  0x4e, 0xc9, 0x0a, 0x3c, 0x60, 0xe9, 0xca, 0x3d, 0x96, 0x18, 0x51, 0xbe,
  0x64, 0xc4, 0x10, 0x3e, 0xe2, 0xdd, 0xff, 0xff, 0x10, 0x00, 0x00, 0x00,
  0x0a, 0x00, 0x00, 0x00, 0x1c, 0x00, 0x00, 0x00, 0x38, 0x00, 0x00, 0x00,
  0x04, 0x00, 0x00, 0x00, 0x10, 0x00, 0x00, 0x00, 0x04, 0x00, 0x00, 0x00,
  0x01, 0x00, 0x00, 0x00, 0x08, 0x00, 0x00, 0x00, 0x1a, 0x00, 0x00, 0x00,
  0x73, 0x65, 0x71, 0x75, 0x65, 0x6e, 0x74, 0x69, 0x61, 0x6c, 0x2f, 0x63,
  0x6f, 0x6e, 0x76, 0x32, 0x64, 0x5f, 0x31, 0x2f, 0x43, 0x6f, 0x6e, 0x76,
  0x32, 0x44, 0x00, 0x00, 0x58, 0xdd, 0xff, 0xff, 0x62, 0xde, 0xff, 0xff,
  0x04, 0x00, 0x00, 0x00, 0x80, 0x01, 0x00, 0x00, 0x1d, 0x6f, 0x0b, 0xbe,
  0xd7, 0x98, 0xa4, 0xbd, 0x56, 0x1b, 0xbf, 0x3c, 0xfa, 0x3d, 0x4a, 0xbd,
  0xed, 0xf9, 0x34, 0x3d, 0x9d, 0xe8, 0x8f, 0x3d, 0x93, 0xcd, 0xf0, 0xbc,
  0xd0, 0x0a, 0xdd, 0x3c, 0x17, 0x5f, 0xf9, 0x3b, 0x84, 0x56, 0xa1, 0xbd,
  0xce, 0x62, 0xbc, 0x3d, 0x05, 0x58, 0xa8, 0xbc, 0x93, 0x17, 0x0d, 0x3e,
  0xa6, 0x74, 0x00, 0x3d, 0xbb, 0xb9, 0x60, 0x3d, 0x52, 0x6f, 0x05, 0x3f,
  0x4f, 0x00, 0x14, 0x3d, 0xac, 0xe4, 0xf2, 0xbd, 0xb7, 0x8c, 0x9c, 0xbd,
  0x4c, 0x1b, 0xb8, 0x3d, 0xeb, 0x55, 0x9a, 0x3e, 0xc8, 0x95, 0xf7, 0xbe,
  0xcb, 0x04, 0xb0, 0xbd, 0xb3, 0x46, 0x24, 0xbe, 0x6c, 0x83, 0xe4, 0x3e,
  0x51, 0xdb, 0x22, 0xbd, 0x1a, 0xae, 0x8a, 0x3d, 0xdf, 0x5a, 0x0e, 0x3e,
  0x4e, 0xf6, 0xe2, 0x3d, 0x0b, 0x20, 0x1e, 0x3e, 0x45, 0xd5, 0x5c, 0x3e,
  0x6d, 0x9f, 0x09, 0xbe, 0xf4, 0x20, 0x73, 0xbe, 0x1c, 0x32, 0x48, 0xbe,
  0xc6, 0x5d, 0x48, 0x3e, 0xee, 0x60, 0x04, 0xbd, 0x08, 0xa0, 0xbf, 0x3e,
  0x90, 0xac, 0x35, 0xbc, 0xb8, 0xbf, 0x2d, 0xbd, 0xbe, 0xeb, 0x8e, 0x3d,
  0xfb, 0x93, 0xe0, 0xbd, 0xd1, 0xcd, 0xd5, 0x3d, 0xc3, 0xd8, 0xc0, 0x3d,
  0x62, 0x45, 0x87, 0x3d, 0x3b, 0xaf, 0xa3, 0xbd, 0xa8, 0xb5, 0x10, 0x3f,
  0x57, 0x75, 0xa8, 0x3d, 0xc0, 0x51, 0xae, 0xbd, 0xe7, 0x1e, 0x8c, 0xbe,
  0x34, 0xa2, 0x83, 0xbe, 0x3c, 0x7b, 0x0f, 0xbe, 0x4b, 0x22, 0xb0, 0x3d,
  0x33, 0x85, 0x5f, 0xbe, 0x0a, 0xf1, 0xce, 0xbe, 0x02, 0xf8, 0xaa, 0x3e,
  0x14, 0xce, 0x82, 0x3e, 0xf5, 0xd8, 0xb4, 0x3e, 0xd6, 0x50, 0x0d, 0xbe,
  0x6f, 0xdd, 0x52, 0x3e, 0x60, 0xfb, 0x4c, 0x3e, 0x5a, 0x17, 0xda, 0xbd,
  0xea, 0x41, 0xa5, 0x3d, 0xd1, 0x82, 0x62, 0x3d, 0x6f, 0xcb, 0xb0, 0xbd,
  0x55, 0x5d, 0x5f, 0x3d, 0x0b, 0xfa, 0x16, 0x3c, 0x38, 0xb6, 0x85, 0xbc,
  0x9b, 0xa6, 0x7a, 0x3d, 0x3c, 0x34, 0xf4, 0xbb, 0x4b, 0x12, 0x0d, 0xbc,
  0x1a, 0xeb, 0x8d, 0x3d, 0x18, 0xdb, 0x87, 0x3c, 0x45, 0xd2, 0x9f, 0x3d,
  0x32, 0x82, 0xbe, 0x3d, 0xb6, 0x05, 0xe9, 0xbc, 0x0a, 0x2f, 0x9a, 0xbc,
  0x7f, 0x94, 0x8d, 0xbd, 0x3c, 0x9d, 0xbd, 0x3e, 0x02, 0x3e, 0xf0, 0xbc,
  0xf0, 0x40, 0x85, 0x39, 0x44, 0xcf, 0x99, 0xbe, 0x6d, 0xd9, 0x65, 0xbe,
  0x10, 0xbd, 0x0a, 0xbc, 0x74, 0x12, 0x90, 0xbe, 0x46, 0x98, 0xd8, 0xbe,
  0xad, 0x49, 0x37, 0x3e, 0x98, 0x58, 0x1b, 0xbe, 0x25, 0xac, 0x96, 0xbc,
  0x30, 0x82, 0x53, 0x3e, 0xb9, 0x7e, 0xd5, 0xbd, 0x13, 0xfc, 0x6d, 0x3e,
  0xab, 0x6f, 0x89, 0xbd, 0x39, 0xc4, 0x79, 0xba, 0x29, 0x09, 0x75, 0x3e,
  0x90, 0xb0, 0xa1, 0xbe, 0x8e, 0x89, 0x86, 0x3e, 0xba, 0xdf, 0xff, 0xff,
  0x10, 0x00, 0x00, 0x00, 0x09, 0x00, 0x00, 0x00, 0x1c, 0x00, 0x00, 0x00,
  0x38, 0x00, 0x00, 0x00, 0x04, 0x00, 0x00, 0x00, 0x08, 0x00, 0x00, 0x00,
  0x04, 0x00, 0x00, 0x00, 0x03, 0x00, 0x00, 0x00, 0x01, 0x00, 0x00, 0x00,
  0x18, 0x00, 0x00, 0x00, 0x73, 0x65, 0x71, 0x75, 0x65, 0x6e, 0x74, 0x69,
  0x61, 0x6c, 0x2f, 0x63, 0x6f, 0x6e, 0x76, 0x32, 0x64, 0x2f, 0x43, 0x6f,
  0x6e, 0x76, 0x32, 0x44, 0x00, 0x00, 0x00, 0x00, 0x30, 0xdf, 0xff, 0xff,
  0x3a, 0xe0, 0xff, 0xff, 0x04, 0x00, 0x00, 0x00, 0x00, 0x01, 0x00, 0x00,
  0x00, 0xee, 0x0e, 0xbe, 0x2c, 0x2a, 0xd3, 0x3e, 0xbd, 0x9f, 0xd6, 0x3e,
  0xde, 0xed, 0xc8, 0x3c, 0xf2, 0x23, 0x1a, 0x3e, 0x4e, 0x83, 0x06, 0xbd,
  0x87, 0x12, 0x47, 0xbd, 0x32, 0xd3, 0x87, 0x3d, 0x80, 0x94, 0x9b, 0x3e,
  0xac, 0xa7, 0x26, 0xbd, 0x97, 0xee, 0x65, 0xbc, 0xac, 0xf7, 0x20, 0xbe,
  0x4b, 0x67, 0xc5, 0xbd, 0x7c, 0xc7, 0x54, 0x3c, 0x3c, 0xcc, 0x0e, 0x3e,
  0xb0, 0xd3, 0x01, 0x3c, 0xf5, 0x11, 0xfb, 0xbd, 0x71, 0xc9, 0xce, 0xbe,
  0x07, 0x4d, 0xc6, 0x3e, 0x6d, 0x8a, 0xb4, 0xbc, 0xe2, 0x5e, 0xf3, 0x3d,
  0x8d, 0xe1, 0x03, 0x3c, 0x5e, 0x80, 0x4c, 0xbd, 0x7e, 0xe7, 0x0c, 0x3c,
  0xad, 0xdd, 0x83, 0xbe, 0xcc, 0xf6, 0xc7, 0xbe, 0x3e, 0xee, 0xbc, 0x3c,
  0x05, 0xa6, 0x02, 0xbe, 0x37, 0xc6, 0xb8, 0xbd, 0xe9, 0x78, 0x7b, 0x3d,
  0x88, 0x5a, 0xeb, 0xbc, 0xe8, 0xed, 0xa8, 0x3c, 0xc2, 0x4d, 0xae, 0xbe,
  0x5b, 0x4e, 0x2b, 0xbf, 0xb7, 0x0b, 0xab, 0x3e, 0x03, 0xaf, 0x9d, 0xbd,
  0xf1, 0x30, 0xc4, 0x3d, 0xa0, 0x64, 0x04, 0xbf, 0x91, 0x6b, 0xaf, 0xbd,
  0x05, 0x5b, 0xf1, 0xbe, 0x7f, 0xbe, 0x78, 0xbf, 0x61, 0x69, 0xda, 0x3c,
  0x6d, 0xda, 0x31, 0xbd, 0x7a, 0x71, 0xce, 0xbe, 0xa5, 0xcb, 0x73, 0xbe,
  0xf6, 0x20, 0x05, 0xbf, 0x67, 0xe6, 0x30, 0x3e, 0xea, 0xf3, 0x07, 0xbe,
  0xf1, 0xc3, 0x1a, 0xbe, 0xec, 0x41, 0x6a, 0x3b, 0xa1, 0x57, 0xb1, 0x3e,
  0x7c, 0xc7, 0x35, 0xba, 0x95, 0xa4, 0xe3, 0x3d, 0x4d, 0xdf, 0x9d, 0x3d,
  0x7e, 0x1e, 0xb0, 0xbb, 0xd9, 0x6a, 0xa4, 0xbc, 0x25, 0x39, 0x8f, 0xbe,
  0x8c, 0x72, 0x3f, 0x3e, 0x17, 0x43, 0x8c, 0x3d, 0x09, 0x05, 0x97, 0xbd,
  0x1d, 0xb1, 0x41, 0xbd, 0x00, 0x74, 0xdb, 0x3d, 0xb6, 0xa6, 0xed, 0x3d,
  0xe8, 0x86, 0x1e, 0xbd, 0x12, 0xe1, 0xff, 0xff, 0x10, 0x00, 0x00, 0x00,
  0x08, 0x00, 0x00, 0x00, 0x14, 0x00, 0x00, 0x00, 0x30, 0x00, 0x00, 0x00,
  0x02, 0x00, 0x00, 0x00, 0x04, 0x00, 0x00, 0x00, 0x10, 0x00, 0x00, 0x00,
  0x19, 0x00, 0x00, 0x00, 0x73, 0x65, 0x71, 0x75, 0x65, 0x6e, 0x74, 0x69,
  0x61, 0x6c, 0x2f, 0x64, 0x65, 0x6e, 0x73, 0x65, 0x5f, 0x31, 0x2f, 0x4d,
  0x61, 0x74, 0x4d, 0x75, 0x6c, 0x00, 0x00, 0x00, 0x80, 0xe0, 0xff, 0xff,
  0x8a, 0xe1, 0xff, 0xff, 0x04, 0x00, 0x00, 0x00, 0x00, 0x1c, 0x00, 0x00,
  0x3f, 0x81, 0xa7, 0xbe, 0xc3, 0x31, 0xc6, 0xbd, 0x49, 0x2c, 0xb6, 0x3d,
  0x35, 0x66, 0x7a, 0xbe, 0x7b, 0x7a, 0x39, 0x3e, 0x6b, 0x29, 0xfd, 0x3d,
  0x0d, 0x84, 0xf9, 0xbd, 0x4f, 0x62, 0xa5, 0x3d, 0xa5, 0xc6, 0x54, 0xbc,
  0x22, 0x9b, 0xc7, 0xbe, 0xa6, 0x37, 0x8c, 0x3c, 0x6f, 0x28, 0xa9, 0x3d,
  0xf9, 0x2f, 0x26, 0x3e, 0x71, 0xbf, 0xcb, 0xbe, 0x30, 0x93, 0x0f, 0x3d,
  0xe5, 0xe9, 0x30, 0x3e, 0xc7, 0x29, 0x98, 0x3d, 0x00, 0x94, 0x21, 0xbd,
  0x5b, 0x05, 0xb8, 0x3d, 0x74, 0x03, 0xbc, 0x3d, 0x97, 0xd8, 0xf9, 0x3e,
  0x93, 0x4e, 0x5f, 0xbe, 0x57, 0x22, 0x8a, 0x3e, 0x59, 0x4d, 0x00, 0x3e,
  0x8c, 0x4f, 0x90, 0x3c, 0x66, 0x3b, 0xe8, 0xbd, 0xe0, 0x02, 0xf2, 0xbd,
  0x29, 0x8d, 0x2b, 0xbc, 0x75, 0xb2, 0xce, 0x3d, 0x86, 0x5d, 0x9d, 0x3e,
  0x99, 0x78, 0x97, 0xbc, 0x97, 0xfe, 0x09, 0xbe, 0xea, 0x36, 0xcd, 0xbc,
  0x38, 0x74, 0xf9, 0xbd, 0xdf, 0x26, 0xf9, 0xbe, 0x9c, 0xd9, 0x57, 0x3d,
  0x21, 0x6f, 0x6a, 0xbe, 0x71, 0xeb, 0xfc, 0xbe, 0x3f, 0x75, 0xf1, 0x3d,
  0x7a, 0xf2, 0x8a, 0x3d, 0x41, 0x97, 0x0a, 0x3c, 0xd9, 0x3a, 0xf6, 0x3d,
  0x7a, 0x49, 0x0c, 0xbf, 0x75, 0x7f, 0x39, 0xbd, 0x86, 0xa8, 0x13, 0x3d,
  0x2b, 0x89, 0x7a, 0x3e, 0xcd, 0x58, 0x99, 0x3c, 0x11, 0x51, 0xc1, 0x3d,
  0xe0, 0xc6, 0x22, 0xbe, 0x5d, 0xee, 0x4c, 0xbe, 0x47, 0x70, 0x46, 0xbf,
  0x7e, 0x3a, 0x01, 0xbc, 0x3a, 0x46, 0x62, 0xbe, 0xbd, 0xb4, 0xf6, 0xbe,
  0x95, 0x05, 0xfe, 0xbe, 0x87, 0x01, 0x2a, 0x3d, 0x28, 0x28, 0x36, 0x3c,
  0x32, 0xae, 0x81, 0xbe, 0x06, 0x4b, 0xc2, 0xbe, 0x3f, 0xcb, 0xff, 0xbb,
  0xa2, 0x3a, 0xf4, 0xbe, 0x70, 0x7c, 0x5c, 0x3e, 0x25, 0x25, 0x41, 0xbc,
  0x47, 0x33, 0x3b, 0xbd, 0x22, 0x8d, 0xcc, 0xbd, 0x68, 0xa1, 0x72, 0xbe,
  0x27, 0xd2, 0xf1, 0xbe, 0x9b, 0x7d, 0x45, 0xbd, 0x9e, 0xd1, 0x24, 0xbf,
  0xc9, 0x63, 0xa6, 0x3e, 0x99, 0x66, 0xc0, 0xbe, 0x1c, 0x9b, 0xee, 0xbc,
  0x84, 0x04, 0x54, 0x3c, 0x7b, 0x23, 0x20, 0xbe, 0x94, 0x80, 0xc2, 0xbd,
  0x20, 0xd0, 0xe2, 0xbd, 0xa2, 0xa4, 0xc3, 0xbb, 0xa6, 0x53, 0xcb, 0x3e,
  0x5b, 0x87, 0xb5, 0xbc, 0xa2, 0xe3, 0x5b, 0xbd, 0x81, 0xad, 0x8e, 0xbe,
  0xa6, 0xd9, 0xde, 0xbd, 0x1b, 0xf9, 0xe5, 0x3c, 0x70, 0xab, 0x23, 0xbd,
  0xcd, 0x73, 0xa2, 0x3e, 0x39, 0x24, 0xc7, 0x3e, 0x67, 0x9a, 0x40, 0xbe,
  0x44, 0x5a, 0xf4, 0xbc, 0x4d, 0x67, 0x84, 0xbb, 0xb8, 0x30, 0xa2, 0xbe,
  0x10, 0xd3, 0x0d, 0x3c, 0x0f, 0x55, 0x40, 0xbe, 0xb3, 0x91, 0x80, 0x3e,
  0xf2, 0x1c, 0x71, 0xbd, 0xcf, 0x99, 0x56, 0xbc, 0x16, 0x27, 0x67, 0xbd,
  0x27, 0x50, 0x41, 0xbd, 0x7a, 0xea, 0xd0, 0xbd, 0x32, 0x65, 0xe8, 0x3a,
  0x78, 0x27, 0x38, 0x3e, 0x12, 0x44, 0xcb, 0x3d, 0x9c, 0xfc, 0x2e, 0x3d,
  0x1e, 0x81, 0x53, 0xbd, 0x59, 0x1d, 0xd7, 0xbd, 0xe7, 0xb9, 0x5d, 0xbd,
  0x38, 0xc6, 0x02, 0xbe, 0x73, 0x37, 0x26, 0x3d, 0x56, 0x6a, 0x64, 0xbc,
  0xca, 0x6f, 0xf5, 0x3d, 0x91, 0xf6, 0xe6, 0x3d, 0x5d, 0xe8, 0xb6, 0x3c,
  0x77, 0x93, 0xbc, 0x3c, 0xa9, 0x2e, 0x81, 0x3f, 0x04, 0x9c, 0x17, 0x3e,
  0x68, 0x68, 0x67, 0xbe, 0x6e, 0xb9, 0xab, 0x3d, 0xab, 0x9e, 0x1c, 0xbe,
  0xe5, 0x6a, 0xf9, 0x3d, 0x2a, 0xd5, 0x60, 0xbe, 0x90, 0x64, 0x2a, 0xbe,
  0x20, 0x32, 0x8b, 0xbe, 0x9c, 0x85, 0xa4, 0x3c, 0x63, 0x10, 0x50, 0xbe,
  0x14, 0x37, 0x8f, 0xbe, 0x6f, 0xb9, 0x7e, 0xbd, 0x3e, 0x99, 0x2e, 0xbe,
  0x4a, 0x82, 0x02, 0xbe, 0xb4, 0xcc, 0x01, 0x3e, 0xb3, 0xda, 0x77, 0x3f,
  0xaf, 0xd0, 0x3a, 0x3d, 0x02, 0xd2, 0xc9, 0xbd, 0x4b, 0x4f, 0xb1, 0xbd,
  0x28, 0xbd, 0xff, 0xbd, 0x8f, 0xc8, 0xea, 0xbd, 0xb5, 0xba, 0xe4, 0xbd,
  0xa4, 0x0e, 0xbe, 0xbe, 0xdc, 0xf1, 0x6a, 0xbe, 0x0d, 0xca, 0x52, 0xbc,
  0xa8, 0x37, 0xcf, 0xbd, 0x74, 0x75, 0x57, 0xbe, 0x75, 0x31, 0x11, 0xbe,
  0x14, 0x4d, 0x1a, 0xbe, 0x01, 0x55, 0x6d, 0xbe, 0x8f, 0x44, 0x3b, 0x3e,
  0x6d, 0x88, 0x62, 0x3f, 0xd3, 0xed, 0x98, 0x3d, 0xb7, 0xc7, 0x14, 0xbc,
  0x1a, 0xce, 0x53, 0x3d, 0x9e, 0xaa, 0x83, 0xbd, 0x76, 0x49, 0x5f, 0x3e,
  0x5d, 0x98, 0x92, 0xbe, 0xe5, 0x47, 0x4b, 0xbe, 0xa4, 0xe4, 0x94, 0xbd,
  0x9f, 0x2d, 0x8d, 0x3c, 0x34, 0x4a, 0xb5, 0xbe, 0x14, 0x81, 0x94, 0xbe,
  0x79, 0x45, 0xec, 0x3d, 0x55, 0xdb, 0x71, 0x3b, 0x03, 0xaa, 0xf4, 0xbd,
  0xc1, 0xc0, 0x49, 0x3e, 0xdd, 0x90, 0xa8, 0x3f, 0x6b, 0x34, 0x11, 0x3e,
  0x78, 0xd7, 0x4c, 0xbe, 0x20, 0x8b, 0x97, 0xbe, 0x38, 0x65, 0x0f, 0x3d,
  0x11, 0x44, 0x3d, 0x3e, 0xaa, 0x08, 0x21, 0xbe, 0x04, 0xcc, 0x02, 0xbe,
  0xf2, 0xf0, 0xb4, 0xbd, 0x61, 0x7d, 0x48, 0xbe, 0x55, 0x17, 0x8d, 0xbe,
  0x22, 0xd1, 0x47, 0xbe, 0x47, 0xc8, 0x1c, 0x3e, 0x16, 0xc7, 0x43, 0x3d,
  0x5a, 0x97, 0xba, 0xbe, 0x18, 0x66, 0x04, 0xbe, 0x40, 0xdb, 0xd0, 0x3f,
  0x68, 0x5b, 0xfd, 0xbd, 0x43, 0x56, 0x88, 0xbe, 0x90, 0x9a, 0x4c, 0xbe,
  0x38, 0xce, 0x7c, 0x3b, 0x7c, 0x9d, 0x08, 0xbe, 0x88, 0xf1, 0xbf, 0xbd,
  0xc9, 0xc8, 0x4e, 0xbd, 0x74, 0xaf, 0x92, 0xbd, 0xaa, 0x78, 0x1d, 0x3d,
  0x9d, 0x7d, 0x41, 0x3c, 0x31, 0x33, 0x8f, 0xbe, 0x17, 0xe1, 0xd9, 0x3d,
  0x20, 0x0b, 0x21, 0x3d, 0x6c, 0x10, 0xaa, 0xbe, 0x58, 0xa1, 0x92, 0xbd,
  0x31, 0x0e, 0x85, 0x3f, 0xc3, 0x49, 0x37, 0x3d, 0x4e, 0xf9, 0xfe, 0xbb,
  0x78, 0x9a, 0xae, 0xbc, 0x74, 0xe5, 0x3b, 0xbe, 0x12, 0x48, 0x0c, 0x3e,
  0xd5, 0x6e, 0x90, 0x3c, 0x4e, 0x4f, 0x65, 0xbe, 0x00, 0x05, 0x45, 0xbd,
  0x87, 0x79, 0xab, 0xbd, 0xd3, 0x81, 0x90, 0xbe, 0x93, 0x8e, 0x72, 0xbd,
  0x20, 0xa3, 0x52, 0xbe, 0xf4, 0x09, 0x3d, 0xbe, 0xe2, 0x60, 0x52, 0xbe,
  0x8d, 0x5b, 0x16, 0xbd, 0x40, 0x50, 0xae, 0x3e, 0xc9, 0xc6, 0xce, 0x3d,
  0xae, 0x47, 0x49, 0xbe, 0x17, 0x19, 0x1a, 0xbd, 0x53, 0x5d, 0x25, 0xbe,
  0x58, 0x52, 0xaf, 0xbd, 0x29, 0x50, 0xa5, 0xbd, 0x91, 0x18, 0x98, 0xbe,
  0x7c, 0xfb, 0x81, 0x3d, 0x35, 0x69, 0x2d, 0xbe, 0x06, 0x2a, 0xe8, 0xbe,
  0x73, 0xf6, 0x82, 0xbe, 0x24, 0xe9, 0xc7, 0x3b, 0xdb, 0x8e, 0x2a, 0xbe,
  0x58, 0xbf, 0x5b, 0xbe, 0xc2, 0x8d, 0x1b, 0xbd, 0x12, 0xdd, 0x63, 0x3e,
  0xad, 0x24, 0xd0, 0xbe, 0xa2, 0xbb, 0x62, 0x3c, 0xd0, 0x9b, 0xcc, 0xbc,
  0xde, 0x1b, 0x8e, 0xbe, 0x8b, 0x90, 0xcb, 0xbe, 0x5f, 0x15, 0x5a, 0x3e,
  0xaa, 0x38, 0x19, 0x3d, 0x5e, 0x7b, 0x2f, 0xbd, 0xd3, 0x25, 0xda, 0xbc,
  0x3a, 0xd6, 0x2a, 0xb9, 0x34, 0x8a, 0x5d, 0x3e, 0x16, 0xe9, 0x05, 0xbd,
  0xcc, 0x11, 0x2c, 0x3e, 0xc1, 0x2a, 0xed, 0xbe, 0x94, 0xb5, 0x38, 0x3e,
  0x6c, 0x1d, 0xbc, 0x3e, 0x00, 0xa5, 0x8e, 0x3d, 0x7a, 0x45, 0x32, 0x3d,
  0xe0, 0xa4, 0x09, 0x3e, 0x7c, 0xab, 0xd7, 0xbe, 0x13, 0x30, 0xaa, 0xbe,
  0x26, 0xb2, 0x97, 0x3d, 0xf9, 0xff, 0x45, 0xbe, 0xaa, 0x82, 0x30, 0xbe,
  0xc3, 0x03, 0xc8, 0x3d, 0x22, 0x62, 0x80, 0x3d, 0xc3, 0x7f, 0x98, 0xbd,
  0xb0, 0x25, 0xbe, 0xbc, 0xe0, 0x98, 0xb1, 0x3e, 0xf5, 0x99, 0xf7, 0xbe,
  0x64, 0x05, 0x67, 0x3d, 0xb3, 0xc3, 0x7b, 0xbd, 0x28, 0x18, 0xb8, 0xbd,
  0x67, 0x60, 0x56, 0x3e, 0xac, 0x5e, 0x4d, 0xbd, 0x32, 0x8f, 0xb6, 0x3b,
  0xb4, 0x6f, 0x2f, 0x3e, 0x76, 0x94, 0xb0, 0x3e, 0x93, 0x5e, 0xad, 0xbe,
  0x73, 0xd4, 0x6e, 0xbd, 0x8a, 0x86, 0x10, 0x3e, 0x19, 0xd4, 0xa4, 0x3d,
  0x1e, 0x26, 0x8e, 0xbe, 0x7b, 0x80, 0x15, 0xbe, 0x8b, 0xda, 0x91, 0x3e,
  0x23, 0x16, 0x15, 0xbf, 0xf7, 0x7b, 0xed, 0xbd, 0x5e, 0x8d, 0xb7, 0x3e,
  0xcc, 0x69, 0x93, 0xbc, 0xad, 0x2d, 0xe0, 0x3e, 0xc7, 0x51, 0x08, 0xbd,
  0x9c, 0x71, 0xf6, 0xbb, 0x78, 0x6e, 0xeb, 0x3c, 0x02, 0x4b, 0x18, 0x3e,
  0x08, 0xbd, 0xdc, 0xbd, 0x5a, 0x14, 0x88, 0xbd, 0x83, 0x4b, 0x3e, 0x3d,
  0x2f, 0x9d, 0x89, 0x3d, 0x43, 0x22, 0x7c, 0x3d, 0x7f, 0xe1, 0x8d, 0xbc,
  0x79, 0x65, 0x8f, 0x3e, 0x3a, 0x46, 0xa2, 0xbe, 0x80, 0x6b, 0xbf, 0xbd,
  0x22, 0xd5, 0x19, 0x3f, 0xd5, 0x3c, 0xd7, 0xba, 0x9b, 0x48, 0x22, 0x3e,
  0x5a, 0xef, 0x90, 0xbc, 0xd6, 0x5f, 0xed, 0xbc, 0xba, 0xdb, 0x19, 0xbf,
  0xc9, 0x65, 0x61, 0x3e, 0x8a, 0x1a, 0x88, 0xbd, 0x7d, 0x8c, 0x01, 0x3d,
  0xd3, 0x34, 0xc9, 0x3e, 0xb4, 0x89, 0x28, 0xbd, 0xe0, 0xbf, 0xf1, 0xbd,
  0x51, 0x4f, 0x3f, 0xbe, 0x1b, 0x7c, 0xea, 0x3d, 0x7c, 0xdc, 0x27, 0xbe,
  0xec, 0xfe, 0x76, 0xbe, 0xe2, 0x87, 0xa0, 0x3e, 0xea, 0x34, 0xba, 0xbe,
  0x03, 0x5f, 0x9e, 0x3c, 0xf2, 0x06, 0xda, 0x3c, 0xcb, 0x40, 0xa4, 0xbe,
  0xfb, 0xd0, 0xd1, 0xbe, 0x04, 0xc1, 0x49, 0x3e, 0x4f, 0xb1, 0xbe, 0xbd,
  0x24, 0x89, 0x42, 0xbc, 0xfa, 0x69, 0x40, 0x3e, 0xd9, 0x71, 0x84, 0x3d,
  0x75, 0x7a, 0x7b, 0xbe, 0xf0, 0x5f, 0x0b, 0xbe, 0xf3, 0xdc, 0x81, 0x3e,
  0x90, 0xa8, 0x9e, 0xbe, 0xde, 0x60, 0xbc, 0x3d, 0x11, 0x57, 0xb4, 0x3d,
  0x48, 0xab, 0xe6, 0xbd, 0x15, 0xd5, 0x92, 0xb9, 0x71, 0xd4, 0xda, 0xbc,
  0x11, 0x94, 0x59, 0xbe, 0x64, 0x0c, 0x10, 0xbe, 0xb1, 0xb7, 0x42, 0x3d,
  0x73, 0x54, 0x0f, 0x3e, 0x29, 0x80, 0xb0, 0xbc, 0x00, 0x4d, 0x4a, 0x3e,
  0x0b, 0x49, 0x23, 0xbc, 0x63, 0x3b, 0x3a, 0xbd, 0xac, 0x56, 0x87, 0xbd,
  0x6d, 0xfa, 0x22, 0x3e, 0xc8, 0x52, 0x4e, 0xbe, 0x20, 0x71, 0x4d, 0x3e,
  0x9f, 0xe4, 0x77, 0x3e, 0xdf, 0x42, 0x92, 0xbb, 0xc7, 0xc6, 0x14, 0xbd,
  0xfc, 0xe9, 0x37, 0x3e, 0xce, 0xdb, 0x9b, 0xbe, 0x22, 0x31, 0x2e, 0xbf,
  0x51, 0x4f, 0x55, 0x3d, 0x8f, 0x5a, 0xfa, 0x3d, 0x28, 0x63, 0xba, 0x3d,
  0xda, 0x00, 0x14, 0x3e, 0x83, 0x60, 0x39, 0x3d, 0x6d, 0x30, 0xab, 0x3e,
  0x71, 0x97, 0x5a, 0xbd, 0x6e, 0xda, 0x57, 0x3e, 0xba, 0x25, 0x90, 0xbe,
  0xf5, 0x68, 0x4b, 0xbe, 0xbb, 0xcf, 0x84, 0x3e, 0x42, 0x6a, 0x32, 0xbc,
  0xfe, 0x19, 0x02, 0xbe, 0x44, 0xcb, 0x25, 0x3e, 0x2f, 0x66, 0x89, 0xbe,
  0xdc, 0x0a, 0x3a, 0x3d, 0x11, 0x6c, 0xbb, 0x3d, 0x6e, 0xe5, 0x58, 0xbd,
  0x98, 0xee, 0x34, 0xbd, 0x96, 0xc7, 0x6f, 0x3e, 0x36, 0x90, 0xce, 0xbd,
  0x01, 0x66, 0x61, 0x3d, 0x5c, 0x44, 0x73, 0xbd, 0x27, 0xbe, 0xf8, 0x3d,
  0x87, 0x60, 0x98, 0xbe, 0x98, 0x70, 0xc2, 0x3c, 0xb1, 0x32, 0x0e, 0x3f,
  0x88, 0xcd, 0xa8, 0xbc, 0xc4, 0x3d, 0xa1, 0xbb, 0x5c, 0x22, 0x80, 0x3d,
  0xbf, 0x85, 0x50, 0x3e, 0x3a, 0xdc, 0xe5, 0x3e, 0xd8, 0xda, 0x8a, 0x3e,
  0xe6, 0xd3, 0x43, 0xbd, 0xf0, 0xff, 0xde, 0xbc, 0x74, 0xee, 0x5d, 0xbc,
  0xcd, 0x37, 0x29, 0xbd, 0x54, 0x69, 0xef, 0xbd, 0xaf, 0xa8, 0x8e, 0xbd,
  0x0c, 0xd6, 0xff, 0x3d, 0x19, 0xbd, 0xaf, 0xbe, 0xb1, 0x93, 0xb3, 0xbd,
  0x46, 0x60, 0xd3, 0x3e, 0x60, 0x34, 0x56, 0x3d, 0x85, 0x01, 0x27, 0x3e,
  0x87, 0x87, 0x00, 0x3d, 0x54, 0x2e, 0x41, 0x3e, 0x60, 0x0d, 0xec, 0xba,
  0xdd, 0x9b, 0x8c, 0x3e, 0xf6, 0x35, 0x63, 0xbd, 0x42, 0xb8, 0x16, 0xbc,
  0xd0, 0x01, 0x26, 0x3e, 0x82, 0x00, 0x80, 0xbd, 0xee, 0x71, 0x9b, 0xbd,
  0x87, 0x6e, 0x7e, 0x3e, 0x06, 0x73, 0x9a, 0x3e, 0xd7, 0xde, 0x82, 0xbd,
  0x80, 0xd1, 0x98, 0xbc, 0xce, 0xc7, 0x32, 0x3f, 0x1b, 0x21, 0x6c, 0x3c,
  0x5e, 0x15, 0x13, 0x3d, 0xbd, 0x15, 0xe5, 0x3d, 0xeb, 0xee, 0x26, 0x3b,
  0xf9, 0x3a, 0xf5, 0xbe, 0x84, 0x8b, 0xa3, 0x3e, 0x0d, 0xf8, 0x27, 0xbd,
  0x70, 0xd8, 0xc1, 0x3c, 0x55, 0x1a, 0x3a, 0x3e, 0xf6, 0xd6, 0x3a, 0xbd,
  0x2c, 0x12, 0xad, 0xbd, 0xd4, 0xf8, 0x34, 0x3c, 0x71, 0x88, 0xc6, 0xbb,
  0x83, 0x31, 0x51, 0xbd, 0xfd, 0x09, 0xec, 0x3d, 0xba, 0x4c, 0x97, 0x3e,
  0x17, 0xc5, 0x1f, 0xbd, 0x15, 0xba, 0x29, 0xbc, 0xcb, 0x10, 0x39, 0x3b,
  0x72, 0xe5, 0x9d, 0xbd, 0x9f, 0xd7, 0x4c, 0xbe, 0x0c, 0x8c, 0xf8, 0x3d,
  0xfd, 0x9f, 0x30, 0xbd, 0xe7, 0xbc, 0x07, 0xba, 0xe3, 0x8f, 0x2e, 0x3e,
  0xe3, 0xa3, 0x7f, 0xbb, 0x71, 0x4d, 0xc6, 0xbd, 0x03, 0xeb, 0x36, 0x3c,
  0x26, 0x16, 0x5b, 0x3e, 0x66, 0xca, 0x5a, 0xbe, 0x56, 0xed, 0x98, 0x3d,
  0x45, 0x2d, 0xa4, 0xbc, 0x26, 0x27, 0x0b, 0x3e, 0x4f, 0x23, 0xff, 0x39,
  0x7e, 0x19, 0xa6, 0xbd, 0xed, 0xe3, 0xa5, 0xbd, 0xe0, 0xe6, 0x12, 0xbe,
  0x0e, 0x76, 0x3d, 0xbc, 0x60, 0x10, 0x1b, 0xbc, 0x3f, 0xef, 0x5d, 0xbb,
  0xc4, 0x9b, 0xeb, 0x3d, 0x64, 0x61, 0x6b, 0xbc, 0xec, 0x97, 0x01, 0xbd,
  0xad, 0xb2, 0xfe, 0xbc, 0xa0, 0xcf, 0x29, 0xbc, 0x81, 0x5a, 0xfe, 0xbd,
  0xdf, 0xee, 0x00, 0xbe, 0xdc, 0xf9, 0xcc, 0xbd, 0xd5, 0x67, 0xaa, 0xbc,
  0x09, 0xa6, 0xd7, 0xbe, 0xed, 0x5f, 0xf5, 0x3d, 0x70, 0x1f, 0x13, 0xbe,
  0x06, 0x4f, 0xd6, 0xbd, 0x2e, 0x76, 0xdd, 0xbe, 0x67, 0xd6, 0xe0, 0x3d,
  0x48, 0x6c, 0xa6, 0xba, 0x8a, 0x76, 0x42, 0xbe, 0x93, 0x2e, 0x88, 0xbe,
  0x3a, 0x04, 0x07, 0x3e, 0x02, 0xad, 0x4c, 0xbe, 0x25, 0x1b, 0xdf, 0xbc,
  0x1d, 0x86, 0xeb, 0xbe, 0x8f, 0xc1, 0x31, 0xbd, 0x96, 0xd0, 0x8c, 0x3d,
  0xe3, 0x53, 0x58, 0xbd, 0xc7, 0xe9, 0x7d, 0xbd, 0x3f, 0xf8, 0x1d, 0x3e,
  0x9f, 0xb1, 0x8d, 0xbe, 0xd8, 0xc3, 0xec, 0xbd, 0xcf, 0xdc, 0xb1, 0xbd,
  0x64, 0xc6, 0xf0, 0x3c, 0xc2, 0xf9, 0xe7, 0xbd, 0xb2, 0x5c, 0xd2, 0xbd,
  0x41, 0x6c, 0xac, 0xbc, 0x24, 0xa0, 0x11, 0xbe, 0x51, 0xc4, 0x47, 0x3d,
  0x92, 0xd9, 0x8e, 0x3e, 0xef, 0x58, 0xc4, 0xbd, 0xe0, 0x17, 0x9e, 0x3c,
  0xb3, 0x61, 0x8f, 0x3e, 0x77, 0x91, 0x07, 0x3e, 0xb4, 0x5c, 0x25, 0xbb,
  0x69, 0xa3, 0x2a, 0x3e, 0xe6, 0x6d, 0x7a, 0x3d, 0x7b, 0xa4, 0x0a, 0xbd,
  0xa5, 0x3a, 0x90, 0x3e, 0x9f, 0xb5, 0x93, 0xbd, 0xf2, 0xf0, 0x08, 0xbd,
  0x62, 0x7c, 0x2a, 0x3e, 0xf2, 0x54, 0xe4, 0x3d, 0x4c, 0x17, 0x60, 0x3c,
  0x3b, 0xdd, 0xba, 0x3c, 0x96, 0x4a, 0x8d, 0x3e, 0xa2, 0x84, 0xd2, 0xbe,
  0x53, 0xd5, 0x19, 0x3e, 0x35, 0x38, 0x96, 0x3e, 0x4b, 0x76, 0x07, 0x3e,
  0xbf, 0x5b, 0x62, 0x3e, 0x3c, 0xe0, 0x09, 0x3e, 0xec, 0xd6, 0x88, 0x3e,
  0x05, 0xd1, 0x84, 0xbe, 0x7c, 0x38, 0x84, 0x3e, 0xdc, 0xcb, 0x20, 0xbe,
  0x25, 0x2c, 0x8d, 0xbe, 0x24, 0x76, 0xcd, 0x3d, 0xb7, 0xd7, 0x77, 0xbb,
  0x02, 0xa9, 0xf0, 0x3d, 0x37, 0x66, 0xe1, 0x3d, 0x9a, 0x98, 0x44, 0x3e,
  0x7c, 0x1b, 0xeb, 0xbe, 0xf6, 0xb9, 0x88, 0xbc, 0xbc, 0xfe, 0xca, 0x3e,
  0xb7, 0xd8, 0x8e, 0xbd, 0x04, 0xba, 0xbe, 0x3d, 0xf2, 0x21, 0x28, 0xbe,
  0xc8, 0xee, 0xad, 0xbe, 0x72, 0x7b, 0xff, 0xbe, 0xb9, 0x4e, 0x03, 0x3f,
  0x4c, 0x73, 0xe1, 0xbd, 0x3d, 0x1e, 0xad, 0xbd, 0x6f, 0xe4, 0xf4, 0x3d,
  0xb7, 0x98, 0x3a, 0x3d, 0xcc, 0x9b, 0xe6, 0xbc, 0xd4, 0xfc, 0x1d, 0xbe,
  0x2c, 0xff, 0x3a, 0x3e, 0xf4, 0x8a, 0xb1, 0xbe, 0x66, 0x24, 0xb7, 0xbd,
  0xed, 0xf4, 0x1c, 0x3f, 0xb4, 0x44, 0x36, 0xbe, 0xaa, 0x91, 0x9a, 0xbc,
  0xc7, 0xd7, 0xc2, 0xbe, 0x04, 0x06, 0x87, 0xbe, 0xbe, 0xc5, 0x96, 0xbe,
  0x70, 0xbc, 0x21, 0x3e, 0x3c, 0x30, 0xab, 0xbe, 0x39, 0x83, 0xc2, 0xbe,
  0x36, 0xff, 0x97, 0x3e, 0xbe, 0x45, 0xa0, 0x3d, 0x52, 0x2b, 0xb9, 0xbd,
  0xcd, 0xba, 0xc2, 0xbd, 0x12, 0x5b, 0x19, 0x3e, 0xfb, 0x12, 0x5d, 0xbe,
  0xfb, 0x23, 0xc7, 0x3a, 0x0e, 0xa3, 0x95, 0xbe, 0x64, 0x2a, 0x1a, 0xbd,
  0xea, 0xf8, 0x59, 0xbd, 0x34, 0x0c, 0x7a, 0xbe, 0x3e, 0x4b, 0xa1, 0xbd,
  0xe8, 0x24, 0xd2, 0x3c, 0x7e, 0x0f, 0x80, 0x3c, 0x63, 0x82, 0xbb, 0xbe,
  0xef, 0x64, 0x9a, 0xbe, 0x73, 0xd5, 0x38, 0xbe, 0x66, 0x36, 0xb6, 0xbc,
  0x21, 0x74, 0x0a, 0xbe, 0xfb, 0x16, 0x33, 0xbd, 0x08, 0xc9, 0x87, 0xbd,
  0x8e, 0x00, 0xb6, 0xbd, 0x22, 0x02, 0x10, 0x3e, 0xa2, 0x59, 0x4c, 0xbe,
  0xf5, 0x0c, 0xf3, 0x3d, 0xac, 0x92, 0xe7, 0xbd, 0x0f, 0xd6, 0x0f, 0xbc,
  0x21, 0x31, 0xdd, 0x3d, 0xac, 0xe4, 0x2b, 0xbe, 0x1d, 0xe8, 0x57, 0xbd,
  0xed, 0xc2, 0x5c, 0xbe, 0xa2, 0x0d, 0xc6, 0xbe, 0x59, 0xff, 0x97, 0xbd,
  0x8d, 0xa8, 0x5c, 0xbb, 0x77, 0x2d, 0xbf, 0xbd, 0xb2, 0xc8, 0x15, 0x3e,
  0xd5, 0xb9, 0xcf, 0x3d, 0xa4, 0x05, 0xd6, 0xbd, 0xa7, 0x59, 0x4c, 0xbe,
  0x5d, 0x61, 0xa4, 0xbe, 0x4c, 0xda, 0x2c, 0x3e, 0x28, 0x04, 0x1a, 0xbe,
  0xb5, 0x17, 0xb4, 0xbc, 0xc2, 0xf7, 0x70, 0x3e, 0x80, 0x67, 0x2e, 0x3e,
  0x81, 0x17, 0xf9, 0xbd, 0x95, 0x41, 0xb4, 0x3b, 0x17, 0xae, 0x93, 0x3d,
  0x24, 0xc7, 0x99, 0xbe, 0xf2, 0x4c, 0x3c, 0x3d, 0x90, 0xe6, 0x1b, 0xbe,
  0x95, 0x70, 0x94, 0x3e, 0x4a, 0xfd, 0x84, 0xbc, 0x9c, 0xa0, 0xde, 0xbb,
  0xac, 0xbf, 0x4f, 0xbd, 0x5a, 0x0b, 0xe5, 0x3d, 0x47, 0x48, 0x91, 0x3e,
  0xc5, 0xd4, 0xad, 0xbc, 0x16, 0xcf, 0xf6, 0xbc, 0x61, 0xd3, 0x87, 0x3e,
  0x08, 0x81, 0xca, 0x3e, 0x8c, 0x04, 0x59, 0x3e, 0xbd, 0x4f, 0xb9, 0xbd,
  0x0c, 0xb5, 0xf6, 0xbd, 0xbe, 0x35, 0xfd, 0x3d, 0x4e, 0xf7, 0xad, 0x3c,
  0x5f, 0xce, 0xde, 0xbe, 0xf0, 0xf7, 0x23, 0x3e, 0xdd, 0xf8, 0x1a, 0xbe,
  0xa6, 0x4e, 0x41, 0x3e, 0x7d, 0x35, 0x9a, 0x3d, 0xad, 0xdc, 0x52, 0xbe,
  0xa7, 0xfc, 0x25, 0xbc, 0x1d, 0xeb, 0x2c, 0x3e, 0x19, 0x51, 0xc4, 0xbd,
  0x5d, 0xa9, 0x76, 0x3d, 0xd8, 0x22, 0xb4, 0x3e, 0x9b, 0x1b, 0x88, 0x3e,
  0xa4, 0x06, 0x4b, 0xbe, 0x8c, 0x43, 0x81, 0xbe, 0x8b, 0xa0, 0x67, 0xbe,
  0x4b, 0xa2, 0x1d, 0xbe, 0x36, 0xab, 0x3d, 0xbe, 0xe6, 0xc8, 0x87, 0x3e,
  0x77, 0xc0, 0x36, 0xbd, 0x70, 0x27, 0xd3, 0x3a, 0x20, 0xbc, 0xef, 0xbd,
  0xe4, 0x19, 0x59, 0xbe, 0x82, 0xae, 0xa4, 0x3e, 0x07, 0x5c, 0x6e, 0x3d,
  0x5b, 0x46, 0xbf, 0xbe, 0xbc, 0xea, 0xd1, 0x3d, 0x4d, 0x1b, 0x83, 0x3e,
  0x9f, 0x9f, 0xae, 0x3d, 0x9f, 0xcc, 0x8d, 0xbe, 0xb6, 0x8f, 0xea, 0xbd,
  0x91, 0xd1, 0xd9, 0xbc, 0x0d, 0x00, 0x15, 0xbe, 0x36, 0xdf, 0x71, 0xbe,
  0x09, 0x02, 0xa1, 0x3e, 0xab, 0xf1, 0x2f, 0xbe, 0xb4, 0x11, 0xbb, 0xbb,
  0x47, 0xce, 0x48, 0x3e, 0x4f, 0xe0, 0x3b, 0xbe, 0x66, 0x61, 0x45, 0x3e,
  0xa4, 0xaa, 0x8c, 0xbd, 0xe3, 0xb2, 0x7c, 0xbe, 0x50, 0xa8, 0x12, 0x3e,
  0xdf, 0x96, 0x04, 0x3d, 0xdd, 0x59, 0xc3, 0xbd, 0x74, 0xdb, 0xc3, 0xbd,
  0x23, 0xf2, 0x33, 0xbe, 0x10, 0x4b, 0x14, 0xbc, 0xa5, 0x6e, 0x13, 0xbe,
  0x24, 0xe7, 0x98, 0xbe, 0x6b, 0x3d, 0x63, 0x3e, 0x0c, 0xb0, 0x2b, 0xbe,
  0x31, 0x3d, 0xc8, 0xbe, 0xc4, 0x26, 0x72, 0x3d, 0x0e, 0xc9, 0xac, 0xbe,
  0xb0, 0x17, 0x41, 0x3e, 0x6b, 0xb5, 0x60, 0xbe, 0xaa, 0x5d, 0xa2, 0xbc,
  0x4d, 0xe7, 0x6a, 0x3d, 0x0c, 0x0f, 0x05, 0x3e, 0x58, 0x78, 0x07, 0xbe,
  0x0c, 0x0d, 0xd3, 0xbe, 0x7f, 0x46, 0x15, 0xbe, 0x2a, 0xb8, 0x27, 0xbe,
  0x98, 0x12, 0xa2, 0x3c, 0xf1, 0x2e, 0xa4, 0xbe, 0xed, 0xdb, 0xa1, 0xbc,
  0x2c, 0x3b, 0x8b, 0xbe, 0x95, 0x6b, 0x8c, 0xbe, 0x1c, 0x1c, 0xa9, 0x3d,
  0x6c, 0x7f, 0x87, 0xbe, 0xa7, 0x48, 0xdb, 0x3e, 0x2d, 0xa5, 0xf4, 0xbe,
  0x15, 0x7f, 0xa6, 0x3e, 0xa5, 0x2a, 0x4d, 0xbe, 0x56, 0x1b, 0x2f, 0xbe,
  0x7c, 0xfd, 0xe5, 0xbe, 0x4d, 0x67, 0x35, 0x3e, 0xb2, 0xed, 0x94, 0x3e,
  0x72, 0x4c, 0xa4, 0xbe, 0x94, 0x1a, 0x51, 0xbd, 0xa4, 0xf6, 0xa5, 0x3e,
  0x2e, 0x4a, 0x37, 0xbe, 0x43, 0xc4, 0x9a, 0x3e, 0x51, 0x86, 0x8d, 0x3d,
  0xd0, 0xfa, 0x9e, 0xbd, 0x4c, 0xad, 0xc4, 0xbe, 0xb4, 0xb0, 0xd3, 0x3e,
  0x24, 0xc8, 0xcc, 0xbe, 0xc6, 0x6d, 0x62, 0x3e, 0x5b, 0x1a, 0x82, 0x3e,
  0x66, 0xcc, 0x02, 0x3f, 0x25, 0xc3, 0x83, 0xbe, 0xc9, 0xea, 0x02, 0x3e,
  0xb4, 0x5e, 0x74, 0xbd, 0xa4, 0x0d, 0xbe, 0xbe, 0x0b, 0xe1, 0xa5, 0xbe,
  0x69, 0x1f, 0x41, 0x3e, 0xc3, 0x8c, 0x12, 0x3f, 0xce, 0x2a, 0x8a, 0xbd,
  0xce, 0xb0, 0x72, 0x3d, 0xe5, 0x22, 0x83, 0xbc, 0x36, 0x56, 0xa5, 0xbe,
  0xc9, 0x32, 0x3e, 0x3e, 0x1d, 0x65, 0x5f, 0xbe, 0xb3, 0x04, 0xef, 0x3d,
  0x34, 0x7d, 0x2b, 0x3f, 0x9d, 0xf3, 0x5f, 0x3f, 0xf3, 0xe0, 0x5f, 0x3d,
  0xbd, 0x01, 0xda, 0x3d, 0x01, 0x28, 0x97, 0xbd, 0x2d, 0x7d, 0x03, 0xbe,
  0x09, 0x30, 0xe5, 0xbe, 0x4d, 0xe3, 0xfd, 0x3c, 0x40, 0xc6, 0x60, 0x3f,
  0x7d, 0x88, 0x2b, 0x3c, 0xa8, 0x1a, 0xc8, 0x3d, 0xd4, 0xa1, 0x7f, 0x3d,
  0xc9, 0x81, 0x97, 0xbe, 0xcd, 0xfb, 0x87, 0x3e, 0x19, 0xf1, 0x4e, 0xbe,
  0xc2, 0xdb, 0xe5, 0x3d, 0x44, 0xda, 0x1b, 0x3f, 0x29, 0x79, 0x3d, 0x3f,
  0xe2, 0x84, 0x54, 0x3e, 0x95, 0xa4, 0x37, 0x3d, 0x0e, 0xde, 0x02, 0xbe,
  0xd5, 0x03, 0xb4, 0xbd, 0xdf, 0xf9, 0x87, 0xbe, 0xd5, 0x35, 0xdd, 0xbc,
  0x71, 0xca, 0x8c, 0x3f, 0x17, 0xbb, 0xec, 0xbc, 0x44, 0xda, 0x20, 0x3d,
  0x61, 0x67, 0x56, 0x3d, 0xe3, 0x2a, 0xd0, 0xbe, 0x9a, 0x58, 0xa4, 0x3e,
  0xd6, 0x44, 0x0a, 0xbe, 0xd7, 0x13, 0x3d, 0x3d, 0x5c, 0x3c, 0x06, 0x3f,
  0x4f, 0x43, 0x4d, 0x3e, 0xd1, 0x34, 0x09, 0xbd, 0xfe, 0x08, 0xd6, 0xbc,
  0x95, 0x66, 0xc5, 0xbd, 0x92, 0xdd, 0xa9, 0xbe, 0x4c, 0x28, 0x19, 0xbe,
  0xbe, 0x92, 0x00, 0xbe, 0xdd, 0x42, 0x0e, 0x3f, 0x6f, 0x58, 0xcb, 0xbe,
  0x3a, 0xd7, 0x1b, 0x3d, 0x92, 0x3b, 0x3b, 0xbd, 0x94, 0x4a, 0xa4, 0xbe,
  0x6e, 0x5b, 0x9c, 0x3e, 0xb2, 0xe3, 0x2c, 0xbe, 0xb7, 0x79, 0x9b, 0x3b,
  0x23, 0x1e, 0x28, 0x3c, 0x1f, 0xf5, 0xbe, 0x3d, 0x8c, 0xc7, 0x56, 0xbd,
  0x64, 0xbd, 0x91, 0xbd, 0x8b, 0xb4, 0x18, 0xbd, 0x4a, 0x2d, 0x69, 0xbe,
  0x92, 0x01, 0x4c, 0xbe, 0x12, 0x91, 0x0d, 0xbe, 0x3a, 0x35, 0x7e, 0x3e,
  0xee, 0x82, 0xff, 0xbe, 0x88, 0x8d, 0xda, 0x3b, 0xab, 0x18, 0x01, 0xbd,
  0x89, 0x40, 0x2a, 0xbe, 0x3b, 0xac, 0x32, 0x3e, 0x8d, 0x31, 0x52, 0x3d,
  0xcb, 0xe1, 0x81, 0x3d, 0x21, 0xf2, 0xd1, 0xbc, 0x18, 0x35, 0x35, 0xbd,
  0xec, 0xdb, 0xdb, 0xbd, 0xfb, 0x0d, 0x54, 0xbe, 0x71, 0x0f, 0x33, 0x3d,
  0xeb, 0xd3, 0x6d, 0xbe, 0xae, 0xf9, 0x60, 0xbc, 0xc2, 0x19, 0x89, 0xbd,
  0x59, 0x88, 0x28, 0xbe, 0xfe, 0x6e, 0x35, 0xbe, 0x2a, 0xa4, 0x9b, 0x3c,
  0x0b, 0xf0, 0x92, 0xbd, 0x2c, 0xbe, 0x64, 0x3f, 0x96, 0xb2, 0x84, 0x3d,
  0xaa, 0xd6, 0x87, 0x3d, 0x25, 0x22, 0xb1, 0xbd, 0x67, 0xbb, 0x3e, 0xbe,
  0xe7, 0xc7, 0xd0, 0xbe, 0xd2, 0x26, 0x5e, 0x3c, 0x69, 0x2d, 0xb9, 0x3d,
  0x0f, 0x56, 0x51, 0xbe, 0x26, 0x80, 0x49, 0x3e, 0x9c, 0x44, 0x9f, 0xbd,
  0x6a, 0x6e, 0x65, 0x3e, 0x3f, 0x0c, 0x59, 0xbe, 0xa3, 0x16, 0xd9, 0x3e,
  0xeb, 0xb9, 0xfa, 0xbe, 0xff, 0xe4, 0xbd, 0x3d, 0x6a, 0xf3, 0x33, 0x3f,
  0x18, 0x4e, 0xf4, 0xbc, 0x8c, 0x8f, 0xce, 0xbd, 0x52, 0x93, 0x19, 0xbe,
  0x7a, 0x09, 0xeb, 0xbe, 0xf1, 0xfb, 0xa7, 0x3e, 0xfb, 0xe2, 0xb2, 0x3c,
  0x55, 0x35, 0xa5, 0xbe, 0x25, 0xfc, 0xe2, 0xbe, 0x10, 0x24, 0x8f, 0xbb,
  0x7b, 0x73, 0x8d, 0x3c, 0x16, 0x2b, 0xb4, 0xbc, 0x55, 0xa4, 0x0a, 0xbe,
  0x39, 0x60, 0x02, 0x3e, 0xad, 0x09, 0xd1, 0xbd, 0x34, 0x4a, 0xf8, 0x3d,
  0xd8, 0x15, 0x1e, 0x3f, 0xd5, 0x38, 0x10, 0xbe, 0x23, 0x0b, 0x96, 0x3d,
  0xc8, 0xc6, 0x29, 0xbe, 0x13, 0x15, 0x62, 0xbd, 0xa3, 0x0a, 0x0a, 0x3f,
  0xe5, 0x53, 0x8a, 0x3d, 0x2a, 0xf1, 0x8b, 0xbe, 0x94, 0x43, 0x8b, 0xbe,
  0x64, 0x5c, 0x82, 0xbe, 0x0b, 0x81, 0x8b, 0x3c, 0x3b, 0x62, 0x6a, 0xbe,
  0xe6, 0x90, 0x7e, 0xba, 0xcf, 0xd7, 0x98, 0x3d, 0xeb, 0x06, 0x37, 0x3d,
  0xee, 0x74, 0x16, 0x3e, 0xa0, 0x6d, 0xb1, 0x3f, 0x7d, 0x4f, 0x0a, 0x3d,
  0xac, 0x37, 0x5f, 0x3e, 0x4c, 0x5a, 0xde, 0x3a, 0x5f, 0x79, 0x6b, 0xbe,
  0x16, 0xa3, 0x8e, 0x3e, 0xf9, 0x4a, 0x7f, 0x3d, 0x61, 0x26, 0xd5, 0xbb,
  0xb9, 0x12, 0xbd, 0xbd, 0x2e, 0xd7, 0x8a, 0xbe, 0xf3, 0x98, 0x38, 0xbd,
  0xf5, 0xa4, 0xcf, 0xbd, 0x85, 0x70, 0x65, 0xbd, 0x6c, 0x2a, 0x9f, 0x3d,
  0xee, 0xfa, 0xa1, 0xbe, 0xd9, 0xef, 0x28, 0x3e, 0xad, 0x84, 0x00, 0x3f,
  0xd6, 0x22, 0xb3, 0x3d, 0xb4, 0xde, 0xb5, 0xbe, 0xbd, 0xa4, 0xa3, 0x3d,
  0x3f, 0xab, 0x7c, 0xbe, 0x0c, 0x79, 0xbb, 0x3e, 0xf8, 0x22, 0x0f, 0xbe,
  0x81, 0x25, 0xd9, 0x3b, 0x1e, 0x6d, 0xea, 0x3d, 0x3f, 0x9f, 0x5d, 0xbe,
  0x3e, 0xa9, 0x3f, 0xbe, 0x97, 0xf6, 0x62, 0xbe, 0x6c, 0xfa, 0x28, 0xbe,
  0x0a, 0x35, 0xbb, 0x3d, 0xad, 0x53, 0x11, 0xbd, 0xa6, 0xfb, 0x2d, 0x3d,
  0xe0, 0x41, 0x59, 0x3f, 0x25, 0x7d, 0xc3, 0x3e, 0xba, 0x4b, 0x4a, 0xbe,
  0xd8, 0xef, 0x2e, 0x3e, 0xf8, 0x82, 0x7c, 0xbd, 0xed, 0x46, 0xed, 0xbd,
  0xda, 0x0b, 0x1b, 0xbe, 0xb1, 0x11, 0xf4, 0xbc, 0x2b, 0xc5, 0x0f, 0x3e,
  0x57, 0xe4, 0x83, 0xbd, 0x79, 0xd7, 0x95, 0xbe, 0x06, 0x5a, 0x93, 0x3d,
  0x89, 0x79, 0xc0, 0x3c, 0xfc, 0x7d, 0x14, 0x3d, 0xe1, 0x9e, 0x52, 0xbe,
  0xfe, 0xf6, 0xa5, 0x3c, 0x61, 0x73, 0x41, 0x3c, 0xff, 0xce, 0x9b, 0x3d,
  0x32, 0x7d, 0x24, 0xbe, 0x8e, 0x0b, 0x2d, 0x3e, 0xda, 0x1f, 0x2f, 0xbe,
  0x82, 0xa6, 0x1a, 0xbd, 0xbb, 0x2c, 0x87, 0xbd, 0xee, 0xef, 0x67, 0xbe,
  0xef, 0x3e, 0x15, 0x3e, 0xb3, 0x31, 0xb2, 0xbe, 0x9d, 0xd5, 0xcc, 0x3c,
  0xac, 0x21, 0x90, 0xbe, 0x1e, 0xe5, 0xbf, 0xbe, 0x6f, 0x90, 0x41, 0xbd,
  0xa2, 0xe1, 0x14, 0x3d, 0x6e, 0x2b, 0x3d, 0x3e, 0x6c, 0x4a, 0x83, 0x3f,
  0xb0, 0xbc, 0x00, 0x3e, 0xb2, 0x96, 0x8d, 0xbe, 0xef, 0x73, 0x2c, 0xbe,
  0xca, 0xca, 0x30, 0xbe, 0x3b, 0xc4, 0xa8, 0xbd, 0x93, 0x26, 0xec, 0xbb,
  0xa5, 0x61, 0x24, 0xbe, 0xdf, 0x4e, 0x77, 0xbe, 0xdc, 0xe8, 0x77, 0xbd,
  0xab, 0xce, 0xa6, 0xbb, 0x1d, 0xd4, 0x1f, 0xbd, 0x87, 0x03, 0x63, 0xbe,
  0xd8, 0x39, 0x47, 0xbe, 0x48, 0x5c, 0xc3, 0xbe, 0xad, 0xb7, 0x65, 0xbe,
  0x9f, 0xfc, 0x0f, 0x3f, 0x7e, 0x97, 0x4c, 0x3e, 0x18, 0xa4, 0xcd, 0x3a,
  0x6e, 0x85, 0x73, 0xbe, 0xc6, 0x14, 0x5f, 0xbe, 0xea, 0x48, 0xd9, 0x3c,
  0xc0, 0x7d, 0x95, 0xbd, 0x51, 0x80, 0x4a, 0xbe, 0xa7, 0x01, 0x01, 0xbd,
  0xae, 0x13, 0xc4, 0x3c, 0x21, 0x6f, 0x34, 0xbe, 0x4e, 0xc9, 0x0e, 0xbd,
  0xce, 0x15, 0xb6, 0xbd, 0x38, 0xbd, 0x8f, 0xbe, 0x88, 0xbb, 0xaf, 0xbe,
  0x96, 0x11, 0x3c, 0xbd, 0x8b, 0xd0, 0x93, 0x3f, 0xaf, 0xaf, 0x00, 0x3e,
  0x34, 0x2d, 0x27, 0xbe, 0x37, 0xe0, 0x22, 0x3b, 0x5c, 0x92, 0x86, 0xbe,
  0x89, 0x4f, 0xa3, 0x3c, 0x61, 0xce, 0x8e, 0xbd, 0xfb, 0xcc, 0x57, 0xbe,
  0xa1, 0xb2, 0xa0, 0xbd, 0x1c, 0x61, 0xaa, 0xbc, 0x7f, 0x8a, 0x52, 0xbe,
  0xa5, 0x4b, 0x8d, 0xbe, 0xac, 0xb4, 0x91, 0xbe, 0x57, 0x11, 0x5a, 0x3d,
  0x38, 0x5e, 0xe8, 0xbd, 0x82, 0xca, 0x22, 0xbe, 0x55, 0x62, 0x65, 0x3f,
  0x9d, 0x1d, 0xed, 0x3d, 0x96, 0x90, 0x3e, 0xbe, 0xbd, 0x30, 0xa7, 0x39,
  0x7c, 0xa7, 0x27, 0x3b, 0xcd, 0x00, 0x97, 0x3e, 0xaa, 0xe6, 0xf7, 0xbd,
  0x58, 0xe2, 0xe6, 0x3a, 0x16, 0x8d, 0xa8, 0xbe, 0x6e, 0x5d, 0xac, 0xbd,
  0xa6, 0xe4, 0xc9, 0x3d, 0x84, 0x9f, 0x8a, 0xbd, 0x25, 0x64, 0x86, 0xbd,
  0xa8, 0x28, 0x31, 0x3d, 0x88, 0x32, 0xdc, 0xbd, 0xad, 0x65, 0x0d, 0x3e,
  0x49, 0x6b, 0xb2, 0x3f, 0x27, 0x6e, 0xa4, 0x3b, 0x38, 0x4a, 0x9b, 0xbd,
  0xb9, 0xbe, 0xfa, 0xbb, 0xc5, 0x3a, 0xed, 0xbd, 0x8c, 0xac, 0x71, 0x3d,
  0x59, 0x73, 0x92, 0x3d, 0xed, 0xd1, 0x2f, 0xbe, 0x33, 0x74, 0x0e, 0xbe,
  0x7c, 0x7f, 0xcc, 0x3d, 0xa6, 0x27, 0xea, 0xbc, 0x58, 0xdc, 0xaf, 0xbe,
  0x3b, 0xc6, 0x36, 0xbe, 0x8e, 0x8e, 0x0e, 0xbd, 0x11, 0x32, 0x47, 0xbe,
  0x2b, 0x34, 0x43, 0xbe, 0x23, 0x22, 0x36, 0x3f, 0x03, 0x5c, 0xa8, 0x3d,
  0xd0, 0x4c, 0x97, 0xbd, 0x05, 0x8b, 0x89, 0x3d, 0x84, 0xd1, 0xd2, 0xbd,
  0x05, 0x51, 0x36, 0xbe, 0xe8, 0xd4, 0x97, 0xbd, 0x9d, 0x86, 0x3b, 0xbe,
  0xca, 0x6a, 0xbf, 0xbd, 0x4b, 0xa0, 0xca, 0xbd, 0x55, 0x93, 0xd7, 0xbd,
  0x8e, 0x75, 0x89, 0x3d, 0xff, 0xd2, 0x9f, 0x3d, 0xf8, 0xcd, 0x80, 0xbe,
  0xc1, 0x5e, 0xca, 0xbc, 0x92, 0xe6, 0x3b, 0x3d, 0x44, 0xf9, 0x06, 0x3e,
  0xb2, 0x35, 0x5d, 0x3d, 0x67, 0x20, 0xd1, 0xbe, 0xde, 0x31, 0x03, 0xbe,
  0x1a, 0x82, 0x97, 0xbd, 0xbd, 0x85, 0x02, 0xbc, 0xeb, 0xff, 0xa5, 0xbe,
  0x04, 0xd5, 0x4d, 0xbe, 0x51, 0x7f, 0xfd, 0x3b, 0x03, 0x8e, 0x25, 0x3d,
  0xb1, 0xeb, 0x37, 0xbe, 0x32, 0xde, 0x64, 0xbe, 0xa7, 0xc4, 0x31, 0xbe,
  0xc8, 0x67, 0xb4, 0x3d, 0x8b, 0x55, 0x1e, 0xbe, 0xe4, 0x45, 0xab, 0x3d,
  0x91, 0xa7, 0x1d, 0x3e, 0x03, 0x59, 0xb2, 0xbd, 0xe9, 0xb9, 0x2c, 0xbd,
  0x5c, 0x1b, 0xda, 0x3d, 0x6c, 0x4c, 0x5e, 0xbe, 0x6e, 0xeb, 0x6b, 0xbe,
  0xac, 0x13, 0x40, 0xbe, 0xb1, 0x50, 0xa0, 0xbe, 0x34, 0xc5, 0x66, 0xbe,
  0x66, 0x53, 0x3a, 0xbe, 0x1e, 0xa8, 0x2f, 0xbe, 0xa0, 0x19, 0x55, 0x3e,
  0x9d, 0xc2, 0xca, 0xbd, 0x77, 0xb9, 0x6f, 0xbe, 0x6c, 0xb3, 0x2f, 0x3d,
  0xf4, 0x5a, 0x01, 0xbe, 0x32, 0xe9, 0x2d, 0xbd, 0x94, 0x79, 0x15, 0xbc,
  0xb2, 0x92, 0x6a, 0x3d, 0xf8, 0xea, 0x0a, 0xbc, 0x3d, 0x30, 0x46, 0xbc,
  0x31, 0xbb, 0xc6, 0xbd, 0x67, 0x9e, 0x12, 0xbd, 0x36, 0x01, 0x0c, 0xbe,
  0x8e, 0x44, 0x9d, 0xbd, 0x0d, 0x18, 0x86, 0xbd, 0xfe, 0xb1, 0xdc, 0xbd,
  0x0e, 0x95, 0x8e, 0x3d, 0x8a, 0x6b, 0x79, 0xbe, 0x11, 0x2b, 0x1d, 0x3e,
  0xa3, 0x7e, 0x35, 0xbe, 0xcb, 0x25, 0xbc, 0x3d, 0xe1, 0x43, 0xe2, 0x3b,
  0x81, 0x0f, 0x48, 0xbd, 0x7b, 0xff, 0xbf, 0xbd, 0x60, 0x24, 0xf6, 0xbb,
  0x9f, 0x35, 0x0b, 0x3d, 0x86, 0x61, 0x8a, 0xbc, 0x63, 0x4f, 0x49, 0x3d,
  0x7b, 0x25, 0x8c, 0xbe, 0xa4, 0xec, 0xcc, 0x3d, 0xc7, 0x5f, 0x84, 0xbe,
  0x34, 0x78, 0x29, 0x3d, 0x21, 0xb6, 0x4b, 0xbe, 0x4e, 0x67, 0xb2, 0x3d,
  0xf5, 0xf2, 0x00, 0xbe, 0x86, 0x9b, 0x79, 0xbe, 0xc0, 0x98, 0xe5, 0xbd,
  0x0f, 0xa8, 0x13, 0xbe, 0x5e, 0x64, 0x02, 0x3e, 0xc8, 0xf5, 0x20, 0xbe,
  0x51, 0xe0, 0x51, 0x3e, 0x3c, 0x1e, 0x5c, 0x3d, 0x0d, 0x0b, 0x84, 0x3d,
  0x0f, 0xab, 0x17, 0xbe, 0xd2, 0xbc, 0xcd, 0xbc, 0xec, 0xcd, 0x08, 0xbe,
  0x5e, 0xb1, 0x7a, 0xbe, 0x04, 0xcd, 0x10, 0xbc, 0xe9, 0x9a, 0x66, 0x3e,
  0x3f, 0xfd, 0x25, 0xbe, 0xb0, 0x17, 0xfe, 0x3d, 0xd3, 0x23, 0x04, 0xbd,
  0x0c, 0x0a, 0x90, 0x3d, 0xce, 0xe0, 0x0a, 0xbe, 0x64, 0x89, 0x67, 0x3d,
  0xe3, 0x02, 0xac, 0xbd, 0xa3, 0x0a, 0xcd, 0x3d, 0x59, 0x73, 0xd8, 0xbd,
  0x68, 0xb3, 0x3b, 0x3d, 0x79, 0xe6, 0x01, 0xbe, 0x29, 0x20, 0xc0, 0xbd,
  0xb0, 0x5c, 0x4e, 0xbe, 0xf0, 0xc3, 0xd7, 0x3d, 0xde, 0x25, 0x56, 0xbe,
  0xf6, 0xbe, 0x0b, 0xbe, 0x8d, 0x21, 0xc1, 0x3c, 0x43, 0xcb, 0x7f, 0x3c,
  0xc9, 0xac, 0xe9, 0x3b, 0xe9, 0xbd, 0xa5, 0x3d, 0x7d, 0xd7, 0x6b, 0x3a,
  0x67, 0xc4, 0x11, 0xbd, 0xf9, 0x17, 0x4a, 0xbe, 0x5e, 0x10, 0x97, 0xbd,
  0xf2, 0x1e, 0x21, 0xbe, 0x91, 0x55, 0x8e, 0x3d, 0x35, 0x79, 0x83, 0x3c,
  0x6c, 0x52, 0x77, 0xbd, 0x00, 0x32, 0x8b, 0xba, 0x11, 0xf0, 0x01, 0xbe,
  0xa4, 0x61, 0x3f, 0xbe, 0x8f, 0xa2, 0xe1, 0x3d, 0x12, 0x7a, 0x42, 0x3d,
  0xc3, 0x7c, 0x1d, 0x3d, 0xa2, 0x37, 0xb5, 0xbe, 0xbf, 0x83, 0x0e, 0xbd,
  0x06, 0x02, 0x63, 0xbe, 0x1d, 0x85, 0x4a, 0xbe, 0x9e, 0x19, 0xad, 0xbd,
  0x39, 0xd7, 0x53, 0xbd, 0x7c, 0x90, 0x48, 0xbe, 0x8a, 0x3a, 0x92, 0xbe,
  0xc3, 0x93, 0xec, 0xbc, 0x2c, 0x9c, 0x6c, 0xbc, 0xd7, 0xc6, 0x55, 0x3e,
  0xb2, 0xef, 0xbf, 0x3d, 0xcf, 0x4f, 0xd6, 0xbd, 0x06, 0x37, 0x49, 0x3d,
  0x0c, 0x5a, 0x95, 0xbb, 0xc6, 0x15, 0x23, 0x3e, 0x67, 0xe6, 0x55, 0xbe,
  0xb7, 0xd8, 0x52, 0xbd, 0xa1, 0x6e, 0x98, 0xbe, 0x01, 0x65, 0x91, 0x3e,
  0x06, 0x3e, 0x05, 0xbf, 0xb6, 0x6a, 0x82, 0x3e, 0xe7, 0x44, 0x75, 0xbe,
  0x21, 0x14, 0xaa, 0xbd, 0x78, 0x3d, 0xf8, 0xbe, 0xfc, 0xa4, 0x93, 0x3e,
  0x19, 0x7a, 0x0d, 0x3e, 0xa9, 0x35, 0x1c, 0xbe, 0xdf, 0x57, 0xc4, 0xbe,
  0x20, 0xca, 0x48, 0x3e, 0x53, 0xb8, 0x9f, 0xbe, 0xdb, 0x8f, 0x2b, 0x3e,
  0x55, 0x52, 0xf8, 0x3d, 0xc9, 0xbd, 0x02, 0x3e, 0xb0, 0x28, 0xac, 0xbe,
  0x2e, 0x49, 0x60, 0x3e, 0xc9, 0x1d, 0xb8, 0xbe, 0xc1, 0xb4, 0x15, 0x3e,
  0x97, 0x88, 0x75, 0x3e, 0x40, 0x4c, 0x76, 0x3e, 0x5b, 0x48, 0xf4, 0xbe,
  0x55, 0xc3, 0x88, 0x3e, 0x1c, 0x7a, 0x68, 0xbc, 0x0d, 0x5d, 0x6a, 0xbc,
  0x46, 0xc6, 0x28, 0xbf, 0xde, 0x8c, 0x19, 0x3e, 0x8b, 0x79, 0xb1, 0xbe,
  0x08, 0x97, 0x96, 0x3e, 0x4f, 0xd7, 0xea, 0x3d, 0xfe, 0xc6, 0x93, 0xbc,
  0x4a, 0x2f, 0xb1, 0xbe, 0x3b, 0x60, 0x2a, 0x3e, 0xa4, 0xdd, 0x9e, 0xbe,
  0x1a, 0x77, 0x11, 0x3e, 0x0c, 0xd2, 0xe7, 0x3d, 0xd7, 0x31, 0x97, 0x3e,
  0xac, 0xc8, 0x9d, 0x3d, 0x7d, 0x01, 0xdd, 0x3d, 0xa9, 0x44, 0x3d, 0x3d,
  0xb5, 0xb4, 0xfb, 0x3d, 0xdf, 0x1e, 0x34, 0xbf, 0x60, 0xf7, 0x23, 0x3d,
  0xc1, 0x5a, 0x30, 0xbe, 0x33, 0x67, 0x2e, 0x3e, 0xa9, 0xd2, 0x72, 0x3d,
  0x09, 0x6b, 0x2f, 0x3e, 0x34, 0xcb, 0x1f, 0xbe, 0xcf, 0x3c, 0x13, 0x3e,
  0xa9, 0xa5, 0x35, 0xbe, 0xca, 0xd3, 0x01, 0xbd, 0xd9, 0x50, 0xb4, 0x3e,
  0x1c, 0x08, 0xba, 0x3e, 0xe9, 0xc3, 0x87, 0xbe, 0x0a, 0x30, 0xb9, 0x3d,
  0xdc, 0xbf, 0x70, 0x3b, 0xa0, 0x6f, 0x1e, 0x3e, 0xf7, 0xef, 0x39, 0xbf,
  0xb2, 0x47, 0x62, 0x3b, 0xc4, 0x80, 0xe5, 0x3d, 0x43, 0xb8, 0x13, 0x3e,
  0x70, 0x10, 0x05, 0x3d, 0xef, 0x8c, 0xa9, 0x3d, 0x5a, 0xb0, 0xcb, 0xbe,
  0x92, 0x5d, 0xc1, 0x3d, 0x5d, 0xfa, 0xb4, 0xbe, 0x19, 0xab, 0x97, 0x3d,
  0x15, 0x73, 0xf8, 0x3e, 0x37, 0xe3, 0xc3, 0x3e, 0xba, 0x19, 0x36, 0xbe,
  0x27, 0xac, 0x39, 0xbd, 0x01, 0xe6, 0xee, 0x3b, 0x9f, 0xaa, 0x65, 0x3e,
  0x6c, 0x22, 0x14, 0xbf, 0xb3, 0xdd, 0xa9, 0xbd, 0xc0, 0xdb, 0x89, 0xbe,
  0x8f, 0x1a, 0x0d, 0x3e, 0xd3, 0xf0, 0x62, 0x3d, 0x3e, 0xfb, 0xff, 0x3d,
  0x1f, 0x9a, 0x4d, 0xbe, 0x62, 0x89, 0x96, 0x3e, 0xf9, 0x59, 0x3c, 0xbe,
  0xf4, 0x96, 0x3d, 0xbc, 0xce, 0x74, 0x28, 0x3e, 0x1b, 0xcf, 0x36, 0x3e,
  0x53, 0x7c, 0x7e, 0xbe, 0x58, 0x22, 0x7d, 0xbd, 0x78, 0xc6, 0x96, 0x3a,
  0x38, 0xbd, 0x96, 0xbd, 0xdb, 0x83, 0x2a, 0xbf, 0x63, 0x26, 0x14, 0xbe,
  0x0c, 0x4e, 0xb1, 0xbe, 0x46, 0x33, 0xfe, 0xbe, 0x6c, 0xb1, 0xf0, 0xbb,
  0x6b, 0xfd, 0x42, 0x3e, 0x26, 0xcd, 0x71, 0xbe, 0x14, 0xe7, 0x29, 0xbd,
  0x04, 0xcb, 0x66, 0x3d, 0xe0, 0xe6, 0xd0, 0x3d, 0x18, 0xd2, 0xc8, 0xbd,
  0x69, 0xf6, 0xe0, 0xb9, 0x35, 0x3d, 0x43, 0xbe, 0xb8, 0x01, 0x27, 0xbe,
  0x98, 0x44, 0xa1, 0x3b, 0x2f, 0xbd, 0x22, 0xbe, 0x7a, 0x51, 0x2a, 0xbc,
  0x8b, 0x12, 0x96, 0x3c, 0xba, 0xd5, 0xf1, 0xbe, 0xf3, 0xba, 0x9c, 0xbe,
  0x16, 0x8a, 0x0a, 0x3d, 0x75, 0xaf, 0xfb, 0xbb, 0x67, 0x0a, 0x79, 0xbe,
  0xba, 0x2a, 0x99, 0xbb, 0xcc, 0xc0, 0xd2, 0xbd, 0x2f, 0xe2, 0xfd, 0xbd,
  0xf1, 0x1a, 0x30, 0x3d, 0x5e, 0x97, 0x31, 0xbe, 0xbc, 0xf9, 0x60, 0x3d,
  0xd3, 0x92, 0x32, 0x3d, 0xbf, 0x96, 0x51, 0xbe, 0xe7, 0xdf, 0x30, 0xbd,
  0x90, 0xa3, 0xf3, 0xbc, 0x59, 0x5b, 0x9d, 0xbe, 0x2a, 0x6b, 0xf9, 0xbc,
  0x27, 0x7c, 0xfc, 0x3c, 0xf7, 0x2e, 0xcf, 0xbd, 0xd2, 0xdb, 0xd0, 0xbd,
  0xb2, 0x2c, 0xf0, 0xbd, 0x27, 0xf2, 0x05, 0x3d, 0xc4, 0x73, 0xb0, 0xbd,
  0xc0, 0x53, 0x90, 0xbe, 0x0c, 0x0a, 0x01, 0x3e, 0x3e, 0x02, 0x5f, 0x3e,
  0x33, 0x8a, 0x03, 0xbe, 0x7b, 0x30, 0x2d, 0xbc, 0x4e, 0x13, 0x5c, 0xbe,
  0x8d, 0x1f, 0x27, 0xbe, 0x62, 0x7a, 0xad, 0xbb, 0x4e, 0xec, 0xbf, 0xbd,
  0xff, 0xc4, 0xeb, 0x3d, 0xc4, 0x55, 0x28, 0x3d, 0xcf, 0xf8, 0x85, 0xbe,
  0x1e, 0xcc, 0xbf, 0x3d, 0x46, 0x03, 0xae, 0x3d, 0x7d, 0xc1, 0x58, 0x3e,
  0x8a, 0x29, 0xbe, 0xbc, 0xea, 0x99, 0x97, 0xbe, 0x60, 0xec, 0xd0, 0x3e,
  0x93, 0x46, 0xb7, 0x3e, 0x66, 0xd6, 0x5d, 0xbd, 0xf7, 0xbe, 0x62, 0x3e,
  0x90, 0xe8, 0x8b, 0xbe, 0x88, 0x6f, 0xd1, 0xbd, 0x6c, 0x36, 0x54, 0xbc,
  0xdd, 0x26, 0x8f, 0xbe, 0xac, 0x50, 0x9a, 0x3e, 0xc7, 0x8d, 0x8a, 0xbd,
  0x52, 0x7b, 0x68, 0xbe, 0x5e, 0x39, 0x52, 0x3e, 0x68, 0x46, 0x0b, 0x3e,
  0xb5, 0x16, 0xd7, 0xbc, 0x9e, 0x6b, 0xa8, 0x3d, 0x32, 0x55, 0xb5, 0xbe,
  0x1d, 0x29, 0x3b, 0x3e, 0x0c, 0x18, 0x54, 0x3e, 0xe4, 0x7c, 0x79, 0x3d,
  0xbc, 0x86, 0xaa, 0xbe, 0x47, 0x6b, 0xbc, 0xbe, 0x8c, 0x18, 0x6f, 0xbd,
  0x21, 0x63, 0xf6, 0x3d, 0xa9, 0x5c, 0x0b, 0xbe, 0xc6, 0x8a, 0x3e, 0x3e,
  0x62, 0xf6, 0x41, 0x3d, 0x14, 0x3b, 0x04, 0xbd, 0x0c, 0x1c, 0x63, 0x3e,
  0x59, 0xcb, 0xe8, 0xbd, 0xad, 0x51, 0xcb, 0x3e, 0xc5, 0x62, 0x31, 0x3d,
  0x78, 0x9e, 0x12, 0xbf, 0x4a, 0xa9, 0x88, 0x3e, 0x25, 0x11, 0x1f, 0x3d,
  0x48, 0xed, 0x94, 0xbd, 0xbb, 0x4a, 0xcd, 0xbe, 0xa5, 0xd9, 0x22, 0xbf,
  0xe8, 0xe0, 0x72, 0xbe, 0xc7, 0x3e, 0x16, 0x3d, 0xb7, 0x3d, 0xbb, 0xbe,
  0x0b, 0x96, 0x83, 0x3e, 0x43, 0xe2, 0xbe, 0xbe, 0x8a, 0x88, 0x84, 0xbe,
  0x34, 0x39, 0xe8, 0x3d, 0x28, 0xe1, 0x24, 0xbe, 0x2c, 0x14, 0x3f, 0x3e,
  0xd0, 0x51, 0x1c, 0xbd, 0x67, 0x10, 0xd4, 0xbe, 0xcf, 0x8c, 0x50, 0xbd,
  0x82, 0x9b, 0x19, 0x3e, 0xc8, 0x7b, 0x5c, 0x3c, 0x77, 0xe2, 0xeb, 0xbd,
  0xc9, 0x41, 0x27, 0xbf, 0xe9, 0x1e, 0xd1, 0xbd, 0x07, 0xae, 0x9b, 0xbc,
  0x12, 0x26, 0x15, 0xbe, 0x48, 0xf2, 0xbb, 0x3d, 0xea, 0xa2, 0xa3, 0xbe,
  0xb8, 0x49, 0xbd, 0xbe, 0xcc, 0x72, 0x0e, 0xbe, 0xcb, 0x42, 0x48, 0xbe,
  0x5c, 0x40, 0x29, 0x3e, 0x7c, 0xcc, 0x54, 0xbe, 0xce, 0xea, 0xdc, 0xbe,
  0x02, 0x03, 0x4e, 0x3d, 0x2b, 0x20, 0x1e, 0x3e, 0x1b, 0x7e, 0xce, 0xbd,
  0xc3, 0xdc, 0xfa, 0xbe, 0xa4, 0xde, 0x9d, 0xbe, 0x7e, 0x3f, 0x2e, 0x3d,
  0x88, 0xbf, 0x10, 0xbd, 0xf7, 0xcc, 0xb7, 0xbe, 0x4d, 0x0d, 0xe0, 0x3d,
  0x04, 0x7a, 0xe4, 0x3d, 0x66, 0x38, 0x8e, 0xbe, 0xda, 0x51, 0x58, 0xbe,
  0xbf, 0x87, 0x40, 0x3d, 0x79, 0xf1, 0x82, 0x3e, 0x87, 0x34, 0xf2, 0xbe,
  0x8a, 0xf3, 0xc9, 0x3d, 0x1a, 0xa7, 0x0a, 0xbe, 0xab, 0x8d, 0x4a, 0xbe,
  0x20, 0x44, 0x6d, 0xbe, 0x00, 0xcf, 0x53, 0xbc, 0x0a, 0xbc, 0xfc, 0x3c,
  0x2c, 0x01, 0x89, 0xbe, 0x93, 0x57, 0x26, 0xbe, 0xf8, 0x2b, 0x5a, 0x3e,
  0x6a, 0x15, 0x04, 0xbf, 0x08, 0xcc, 0xff, 0x3d, 0x61, 0x36, 0x41, 0x3d,
  0x0a, 0x52, 0xae, 0x3d, 0x07, 0x1f, 0xbf, 0xbe, 0x6d, 0x98, 0x9b, 0x3e,
  0xef, 0x63, 0x05, 0x3d, 0xa6, 0x25, 0x41, 0x3d, 0xf0, 0xd3, 0x75, 0x3e,
  0xdc, 0x7e, 0x9a, 0x3d, 0xe9, 0x44, 0xd7, 0xbe, 0x58, 0x7a, 0xb9, 0x3d,
  0x83, 0xd3, 0xf8, 0x3c, 0x87, 0x0b, 0x57, 0xbe, 0xac, 0xb7, 0x05, 0xbe,
  0xbd, 0xd5, 0x32, 0xbd, 0x77, 0x3b, 0x8a, 0xbd, 0x7e, 0xd6, 0x28, 0x3e,
  0xe5, 0xb2, 0x49, 0x3d, 0xd4, 0x62, 0x32, 0x3e, 0x93, 0x12, 0x87, 0xbe,
  0x13, 0x60, 0x07, 0x3e, 0x1c, 0x7b, 0x41, 0xbe, 0x3f, 0x46, 0xdc, 0x3c,
  0xc0, 0xfc, 0x81, 0x3c, 0xe3, 0x65, 0xeb, 0x3b, 0xc0, 0x27, 0xbd, 0xbd,
  0xef, 0x3c, 0x14, 0xbd, 0xc2, 0x1d, 0x3f, 0x3d, 0xcd, 0x25, 0xec, 0xbd,
  0x18, 0x09, 0x25, 0xbe, 0xe4, 0x8b, 0x31, 0x3d, 0x3f, 0x62, 0xe8, 0xbd,
  0xe6, 0x0c, 0xaf, 0x3d, 0x12, 0xc9, 0x27, 0x3e, 0x03, 0x4e, 0x67, 0xbe,
  0x7d, 0x10, 0x57, 0xbe, 0x4e, 0x94, 0x2f, 0x3e, 0xf3, 0x76, 0x50, 0x3c,
  0x02, 0x84, 0x18, 0x3e, 0xd3, 0x7a, 0x28, 0xbe, 0x5b, 0x9b, 0xa2, 0x3d,
  0x80, 0x02, 0x09, 0xbe, 0x29, 0xf9, 0xa6, 0xbd, 0x86, 0xe3, 0x90, 0x3d,
  0xc8, 0xc8, 0x22, 0xbe, 0x7d, 0x32, 0x48, 0xbd, 0xa4, 0x80, 0x36, 0xbd,
  0xd2, 0xfd, 0xab, 0x3d, 0x74, 0x15, 0x6d, 0x3d, 0xb9, 0x3f, 0x1f, 0x3d,
  0xcf, 0x90, 0x26, 0xbe, 0xd6, 0xdf, 0xed, 0xbe, 0xd1, 0x8c, 0xac, 0x3e,
  0x17, 0x4f, 0x7f, 0x3d, 0xab, 0x4e, 0x34, 0x3d, 0x19, 0x47, 0x92, 0xbc,
  0xd8, 0x41, 0x16, 0x3e, 0x35, 0x7f, 0x06, 0xbe, 0x50, 0xfd, 0xc1, 0xbd,
  0x3c, 0x5f, 0xae, 0x3d, 0x60, 0x41, 0xd4, 0x3b, 0x65, 0x56, 0x88, 0xbc,
  0x82, 0xe3, 0x61, 0xbe, 0x3f, 0xed, 0x52, 0xbe, 0xc8, 0x64, 0xe1, 0xbc,
  0x37, 0x57, 0xd6, 0xbc, 0x94, 0xdc, 0xaf, 0x3d, 0x5e, 0x3c, 0x0f, 0xbe,
  0xa4, 0x82, 0xbd, 0x3d, 0x89, 0xcc, 0x29, 0x3a, 0x3f, 0x65, 0x53, 0x3e,
  0x38, 0x9f, 0x2c, 0xbd, 0xe0, 0xc0, 0x7d, 0x3d, 0x34, 0x35, 0xcf, 0xbd,
  0xa4, 0xd1, 0xd9, 0xbd, 0xbf, 0x77, 0x05, 0x3d, 0x8d, 0x03, 0x10, 0x3e,
  0x86, 0x2d, 0xa5, 0xbe, 0xbf, 0x02, 0x6e, 0xbe, 0x3a, 0x71, 0x3a, 0xbe,
  0x7d, 0x52, 0x8b, 0xbe, 0x63, 0x25, 0x67, 0xbc, 0x15, 0x41, 0xa0, 0xbd,
  0xb3, 0x57, 0x0a, 0xbe, 0xb4, 0x96, 0x28, 0x3e, 0x1c, 0xf3, 0xd4, 0x3b,
  0xd3, 0x7a, 0x41, 0x3e, 0xe8, 0xe4, 0x9f, 0xbd, 0x4b, 0x10, 0x0f, 0x3d,
  0x12, 0xa7, 0xef, 0xbd, 0x97, 0xa4, 0x8c, 0xbe, 0x3e, 0x7b, 0x21, 0x3d,
  0x0f, 0xf9, 0x5c, 0xbe, 0xf6, 0x6b, 0xdc, 0xba, 0x87, 0x7e, 0xd5, 0xbd,
  0x0a, 0x5c, 0x92, 0xbe, 0xa9, 0x0b, 0x48, 0xbe, 0x40, 0xa5, 0x22, 0xbd,
  0x8b, 0x00, 0x41, 0xbe, 0xf8, 0x4b, 0x30, 0xbd, 0x7b, 0xec, 0xa5, 0x3b,
  0xff, 0xf7, 0xae, 0x3c, 0xa4, 0x20, 0x3d, 0x3e, 0x04, 0x9c, 0x86, 0x3c,
  0x04, 0xdd, 0x9d, 0x3c, 0x8b, 0xa5, 0x5d, 0xbe, 0x77, 0x65, 0x1b, 0xbe,
  0xd2, 0x66, 0x83, 0x3c, 0x20, 0x6b, 0x17, 0xbe, 0xd2, 0x2a, 0x65, 0xbe,
  0x58, 0x92, 0xe2, 0xbd, 0x89, 0x16, 0xab, 0xbe, 0xa0, 0xa6, 0x5a, 0xbc,
  0xe9, 0xe2, 0x8a, 0xbe, 0x83, 0xb0, 0x33, 0x3e, 0x1b, 0xcc, 0x9a, 0xbe,
  0x30, 0x29, 0xad, 0x3e, 0x4d, 0xa6, 0xcc, 0xbd, 0x96, 0xcb, 0x87, 0xbc,
  0x36, 0x59, 0x1e, 0x3e, 0xe3, 0x73, 0x58, 0x3e, 0x0c, 0x6b, 0x7b, 0xbc,
  0x3b, 0x95, 0xd2, 0xbd, 0x40, 0x6a, 0x28, 0x3e, 0x0f, 0xff, 0x8e, 0xbd,
  0xff, 0x04, 0x49, 0xbe, 0x4b, 0xb7, 0x9f, 0xbe, 0xfc, 0xfb, 0x02, 0xbe,
  0xb7, 0x7d, 0xd7, 0x3d, 0x88, 0x4e, 0x67, 0x3e, 0x20, 0xb1, 0x8e, 0xbd,
  0x88, 0xe9, 0xbf, 0xbe, 0x88, 0x15, 0x9f, 0x3e, 0x80, 0x15, 0xdb, 0x3d,
  0x1d, 0x27, 0xaa, 0x3d, 0xd5, 0xc7, 0x3f, 0x3e, 0x1a, 0xb2, 0xff, 0x3d,
  0x4f, 0x14, 0x3c, 0x3e, 0x60, 0xbf, 0x02, 0x3d, 0x35, 0x76, 0x84, 0x3b,
  0x89, 0xe5, 0x56, 0xbd, 0xda, 0x5c, 0xe2, 0x3c, 0x0b, 0x46, 0xc0, 0x3d,
  0xf9, 0x22, 0x87, 0x3d, 0x86, 0x50, 0x81, 0x3e, 0xaa, 0xae, 0xf9, 0xbd,
  0x29, 0x0e, 0x2c, 0xbe, 0x09, 0x7e, 0xdb, 0xbe, 0x05, 0xf7, 0x80, 0x3e,
  0xf7, 0xc8, 0x16, 0xbb, 0xa0, 0x1c, 0x0f, 0xbe, 0x2f, 0xd5, 0x51, 0x3e,
  0x27, 0x37, 0x44, 0x3d, 0xcf, 0xf0, 0x77, 0x3e, 0x36, 0x6b, 0x03, 0xbe,
  0xbd, 0xde, 0x57, 0x3d, 0x6f, 0x7c, 0x4b, 0xbe, 0xd3, 0x87, 0x5d, 0xbd,
  0xd6, 0xc2, 0xd0, 0xbd, 0x59, 0xb8, 0xa4, 0x3e, 0x5b, 0x68, 0x90, 0x3d,
  0x4d, 0x68, 0xc1, 0xbd, 0xec, 0x76, 0xda, 0xbd, 0x96, 0xbd, 0x3f, 0xbe,
  0xed, 0xa1, 0xab, 0x3e, 0x2f, 0xf2, 0xb2, 0x3d, 0xb3, 0x4e, 0xc6, 0x3d,
  0x89, 0x7a, 0x07, 0x3e, 0x01, 0xfb, 0x2e, 0x3e, 0xab, 0x3b, 0x01, 0xbe,
  0xff, 0xb5, 0x9c, 0xbb, 0xa0, 0x48, 0x2f, 0x3e, 0x36, 0xfd, 0x94, 0xbe,
  0xff, 0x97, 0xe6, 0xbd, 0x21, 0x6b, 0x12, 0xbe, 0xe6, 0x0f, 0xfe, 0x3d,
  0x39, 0x23, 0x04, 0x3d, 0x36, 0xad, 0x35, 0xbe, 0xf3, 0x68, 0x83, 0x3d,
  0x29, 0x4d, 0xaa, 0xbe, 0xcd, 0xc0, 0x54, 0x3e, 0x4b, 0xb6, 0x4d, 0x3c,
  0xe6, 0x90, 0x56, 0xbd, 0xb4, 0xc3, 0xc2, 0xbd, 0x2e, 0x23, 0xa3, 0x3d,
  0xfc, 0x22, 0x63, 0xbd, 0x7d, 0x42, 0x5c, 0xbe, 0x0b, 0x8a, 0xd0, 0x3d,
  0x88, 0x2d, 0xe7, 0x3d, 0x20, 0xd5, 0xd7, 0xbe, 0x85, 0xa6, 0x13, 0xbe,
  0x11, 0x36, 0x93, 0x3d, 0x01, 0xfe, 0x4d, 0xbe, 0x85, 0xe4, 0x01, 0xbe,
  0x7a, 0x24, 0x6e, 0xbb, 0x3b, 0x25, 0x10, 0xbe, 0x75, 0xeb, 0x65, 0x3e,
  0x3a, 0xa6, 0x5d, 0xbd, 0x73, 0x80, 0xbc, 0xbc, 0x10, 0x46, 0x2c, 0x3e,
  0x87, 0x15, 0x91, 0xbd, 0x0e, 0x54, 0x18, 0xbd, 0xff, 0x57, 0x82, 0xbe,
  0xc8, 0xda, 0xa0, 0x3d, 0xb5, 0x09, 0x4c, 0xbe, 0xa8, 0x90, 0xaa, 0xbd,
  0x8f, 0xd8, 0xbc, 0xbe, 0xe4, 0xca, 0x57, 0xbd, 0x84, 0xef, 0x46, 0x3d,
  0x7f, 0x0e, 0x29, 0xbe, 0xa4, 0x30, 0x3b, 0xbe, 0xfc, 0x19, 0x27, 0xbe,
  0x7f, 0x1f, 0x4f, 0x3c, 0xc6, 0x4e, 0x91, 0xbe, 0x69, 0xbe, 0xcd, 0xbe,
  0xe8, 0x43, 0x6d, 0xbe, 0xcb, 0xed, 0xc0, 0xbc, 0x07, 0xa9, 0xd8, 0xbe,
  0x40, 0x8f, 0x41, 0xbe, 0x49, 0xbd, 0xde, 0xbc, 0x50, 0x2a, 0xe6, 0xbc,
  0xab, 0xb2, 0x41, 0xbe, 0xbd, 0xe3, 0x9d, 0xbe, 0xaf, 0xfb, 0x98, 0xbe,
  0x67, 0x43, 0x39, 0xbe, 0x0a, 0x3b, 0xe6, 0x3c, 0x9d, 0x71, 0xcb, 0x3d,
  0x59, 0xd2, 0x06, 0xbf, 0x10, 0xba, 0x0e, 0x3c, 0x4b, 0x55, 0xac, 0xbd,
  0xc1, 0x13, 0xa6, 0xbe, 0xbd, 0xc9, 0x07, 0xbe, 0x2f, 0xb4, 0x0e, 0x3c,
  0x12, 0x2d, 0xce, 0xbe, 0x79, 0x82, 0x72, 0xbe, 0x85, 0xff, 0x9a, 0x3c,
  0xc5, 0x64, 0x18, 0xbd, 0xc9, 0xec, 0x61, 0x3e, 0xd1, 0xf3, 0x9f, 0xbe,
  0x80, 0xc9, 0x99, 0xbe, 0xee, 0x98, 0x4e, 0xbe, 0x5c, 0xf4, 0xb7, 0xbd,
  0x51, 0x1b, 0x57, 0xbe, 0x03, 0xf2, 0x28, 0x3d, 0x98, 0x21, 0xb9, 0x3d,
  0xa3, 0x83, 0xe7, 0xbd, 0xfa, 0x55, 0x10, 0xbe, 0xa8, 0x70, 0x10, 0x3d,
  0x22, 0x61, 0xd8, 0xbd, 0x05, 0x09, 0xeb, 0xba, 0x60, 0xfb, 0x0c, 0xbe,
  0x50, 0xde, 0x15, 0x3d, 0x16, 0x2a, 0xcd, 0x3d, 0xd6, 0x27, 0x60, 0x3e,
  0xba, 0xf5, 0x56, 0x3d, 0xb1, 0x11, 0x50, 0x3c, 0xc5, 0x39, 0x78, 0xbe,
  0xee, 0x5d, 0x1c, 0x3c, 0xec, 0xbf, 0x76, 0x3c, 0xa2, 0x0f, 0x5b, 0xbe,
  0x56, 0x01, 0x3e, 0x3c, 0xd8, 0xf1, 0xc3, 0x3c, 0xe8, 0xca, 0xe6, 0xbd,
  0x98, 0x23, 0xe2, 0xbd, 0x7c, 0x68, 0xbf, 0xbd, 0x50, 0x6c, 0xe5, 0xbd,
  0xe9, 0x55, 0x3d, 0x3d, 0xdf, 0x95, 0xf3, 0xbd, 0x72, 0x36, 0x10, 0xbd,
  0x6a, 0x61, 0xe0, 0x3d, 0xbe, 0xb9, 0x4a, 0x3e, 0xc6, 0xd7, 0xe3, 0xbe,
  0xc2, 0x64, 0x54, 0xbe, 0x0b, 0x75, 0xcc, 0x3c, 0xde, 0x1e, 0xf9, 0xbd,
  0x26, 0x8a, 0x17, 0xbd, 0x82, 0x02, 0x2d, 0x3e, 0x59, 0x45, 0x36, 0x3e,
  0xb5, 0xec, 0x7c, 0x3d, 0x96, 0xad, 0x1b, 0xbe, 0xfc, 0x0b, 0x73, 0xbe,
  0x93, 0x47, 0x27, 0xbe, 0x37, 0xd2, 0x09, 0x3e, 0x85, 0x52, 0x58, 0xbe,
  0x15, 0xc6, 0xdd, 0xbd, 0x6d, 0xf7, 0xc2, 0xbc, 0x86, 0x22, 0x1f, 0x3e,
  0x45, 0x5f, 0x20, 0xbe, 0x66, 0xfc, 0x0e, 0xbe, 0xbd, 0xe4, 0x0c, 0x3d,
  0x50, 0x5d, 0x05, 0x3d, 0xb4, 0x1f, 0x71, 0xbe, 0xc7, 0x85, 0x1d, 0xbe,
  0xbd, 0x2f, 0xc8, 0x3d, 0xd1, 0x61, 0x89, 0x3d, 0x8b, 0xda, 0x30, 0xbe,
  0x8d, 0x7b, 0x46, 0xbe, 0x3e, 0xea, 0xdb, 0xbd, 0x47, 0xe0, 0x8b, 0x3e,
  0x8b, 0x85, 0xce, 0xbc, 0x02, 0xeb, 0x93, 0xbe, 0x25, 0xba, 0x2f, 0xbe,
  0x77, 0xc9, 0x99, 0x3e, 0xf6, 0x82, 0x79, 0xbe, 0x8b, 0x91, 0x22, 0xbe,
  0x89, 0x8d, 0x9b, 0xbd, 0x7e, 0xf7, 0x2b, 0x3e, 0xcd, 0x4e, 0x13, 0x3e,
  0xfe, 0x4f, 0x00, 0xbe, 0xc7, 0x6b, 0x27, 0x3b, 0xcf, 0xfd, 0x39, 0x3e,
  0x77, 0x72, 0x38, 0xbe, 0x47, 0x4d, 0xc3, 0xbc, 0x3b, 0xb5, 0xd3, 0x3d,
  0xf5, 0x19, 0x24, 0x3d, 0xe0, 0x61, 0xc3, 0x3d, 0xe0, 0xf2, 0xf4, 0xb9,
  0xbc, 0xc1, 0x65, 0xbd, 0x09, 0x96, 0x64, 0xbb, 0xc6, 0x9f, 0xc9, 0xbe,
  0xdc, 0xd8, 0xc5, 0xbb, 0xb0, 0xb1, 0x34, 0xbd, 0x14, 0xe6, 0x9b, 0xbd,
  0x3a, 0x82, 0x3e, 0x3d, 0x66, 0x77, 0xaf, 0xbd, 0xf6, 0x01, 0xc5, 0x3d,
  0x5f, 0x56, 0xff, 0xbd, 0xad, 0x77, 0x13, 0x3e, 0xfb, 0x38, 0xd1, 0x3d,
  0xa4, 0xe9, 0xf0, 0xba, 0x9c, 0xe9, 0xf3, 0xbd, 0x56, 0x77, 0xfd, 0xbc,
  0x43, 0xb4, 0x67, 0xbe, 0x12, 0x90, 0x49, 0x3d, 0xb0, 0x15, 0xf8, 0xbc,
  0x8b, 0xed, 0x3c, 0x3e, 0x40, 0x32, 0x60, 0x3c, 0xd1, 0xad, 0x95, 0x3b,
  0x6d, 0xee, 0x09, 0x3e, 0x03, 0x1a, 0x1a, 0x3e, 0xa6, 0xdf, 0xa0, 0xbe,
  0x70, 0xdf, 0x98, 0x3d, 0x14, 0x65, 0xb2, 0xbc, 0xfa, 0xb3, 0xa5, 0x3d,
  0x90, 0x63, 0x1f, 0x3d, 0xd0, 0x43, 0x1b, 0x3e, 0x36, 0x43, 0x25, 0x3d,
  0x3d, 0xa7, 0xa6, 0xbc, 0x5a, 0x12, 0x1b, 0xbd, 0x67, 0x61, 0x3b, 0xbd,
  0xbd, 0x57, 0xb6, 0x3b, 0xd8, 0x8b, 0x11, 0xbe, 0x3d, 0x58, 0x74, 0x3d,
  0x7e, 0xbc, 0xd8, 0xbd, 0x56, 0xf0, 0x08, 0x3e, 0x75, 0x26, 0x51, 0x3f,
  0x52, 0x33, 0xdc, 0xbe, 0xce, 0xc4, 0xad, 0xbd, 0xd2, 0x12, 0x68, 0x3c,
  0x7e, 0x87, 0x06, 0xbe, 0x13, 0xed, 0x2a, 0xbe, 0xe8, 0x84, 0x75, 0x3d,
  0x5a, 0x23, 0xc2, 0x3b, 0x92, 0x7d, 0x47, 0xbc, 0x26, 0xe4, 0xf0, 0xbd,
  0x99, 0xf9, 0x1a, 0xbe, 0xb8, 0xdb, 0x01, 0xbd, 0x2f, 0xf1, 0x20, 0xbe,
  0x0e, 0xe4, 0x95, 0x3e, 0x9b, 0x9f, 0x2f, 0xbe, 0x74, 0x74, 0xba, 0x3d,
  0xa7, 0xbb, 0xed, 0x3e, 0x07, 0xa1, 0xd8, 0xbd, 0xf3, 0xb1, 0x0d, 0xbe,
  0x7f, 0x79, 0x13, 0x3d, 0x9f, 0xa9, 0xb1, 0xbe, 0xea, 0x28, 0xf5, 0xbe,
  0x60, 0x48, 0x82, 0xbe, 0x12, 0x7e, 0x92, 0xbd, 0x04, 0x9a, 0x74, 0x3c,
  0xee, 0x2d, 0x69, 0xbe, 0x66, 0x8d, 0x2b, 0xbd, 0x3e, 0xc9, 0xc4, 0xbd,
  0x74, 0x94, 0x37, 0xbf, 0x3d, 0x0e, 0x95, 0x3e, 0xad, 0x4e, 0x7b, 0xbe,
  0xb8, 0x43, 0x38, 0xbe, 0xe1, 0x5a, 0x32, 0x3e, 0xff, 0x46, 0xe5, 0xbe,
  0xb1, 0x68, 0x81, 0xbe, 0xc7, 0x31, 0x10, 0x3a, 0x2d, 0xdd, 0x9e, 0xbe,
  0x53, 0x6b, 0x7f, 0x3d, 0x63, 0x1a, 0x14, 0xbe, 0xb0, 0x3e, 0xc8, 0xbd,
  0x07, 0xea, 0xd5, 0x3c, 0x89, 0x8d, 0x8f, 0xbd, 0xae, 0xe1, 0x42, 0xbc,
  0x4c, 0x48, 0x48, 0xbd, 0x17, 0xba, 0x76, 0xbd, 0x8f, 0x9c, 0x35, 0x3e,
  0xfe, 0xab, 0x96, 0x3d, 0x97, 0x3d, 0x5c, 0xbd, 0x82, 0xfd, 0x0d, 0x3f,
  0x49, 0x1e, 0xa9, 0xbe, 0xab, 0x20, 0xb4, 0x3d, 0x64, 0x2e, 0xa7, 0x3a,
  0x40, 0x21, 0xf7, 0x3d, 0x99, 0xf9, 0x13, 0x3e, 0x2f, 0x46, 0xca, 0x3c,
  0x1b, 0x38, 0x0b, 0xbe, 0xea, 0xf9, 0x91, 0x3c, 0x00, 0xdf, 0x81, 0xbc,
  0xd6, 0x3c, 0x52, 0x3d, 0xda, 0x75, 0x23, 0xbe, 0xcc, 0x97, 0xd2, 0x3c,
  0xc4, 0xf7, 0x3e, 0x3d, 0xfb, 0xd2, 0xe9, 0x3d, 0x68, 0xdc, 0x84, 0x3d,
  0x20, 0xe4, 0x49, 0xbc, 0xcc, 0xac, 0x1c, 0xbe, 0x61, 0xae, 0xd8, 0xbb,
  0x20, 0xc5, 0x6e, 0xbd, 0x98, 0xe1, 0x90, 0x3d, 0xe5, 0x61, 0x31, 0xbd,
  0xdf, 0x5f, 0x0a, 0x3d, 0x2c, 0x03, 0x00, 0xbd, 0xb4, 0xdd, 0x8a, 0xbd,
  0xf9, 0xb8, 0xbd, 0xbc, 0x97, 0xb3, 0x36, 0x3d, 0x4b, 0xc0, 0x82, 0xbd,
  0x34, 0x25, 0xef, 0x3d, 0x7c, 0x53, 0x49, 0x3e, 0xe4, 0x7b, 0xdd, 0x3c,
  0x68, 0xbb, 0x37, 0xbe, 0x62, 0xfd, 0xff, 0xff, 0x10, 0x00, 0x00, 0x00,
  0x07, 0x00, 0x00, 0x00, 0x14, 0x00, 0x00, 0x00, 0x2c, 0x00, 0x00, 0x00,
  0x02, 0x00, 0x00, 0x00, 0x10, 0x00, 0x00, 0x00, 0x70, 0x00, 0x00, 0x00,
  0x17, 0x00, 0x00, 0x00, 0x73, 0x65, 0x71, 0x75, 0x65, 0x6e, 0x74, 0x69,
  0x61, 0x6c, 0x2f, 0x64, 0x65, 0x6e, 0x73, 0x65, 0x2f, 0x4d, 0x61, 0x74,
  0x4d, 0x75, 0x6c, 0x00, 0xcc, 0xfc, 0xff, 0xff, 0xd6, 0xfd, 0xff, 0xff,
  0x04, 0x00, 0x00, 0x00, 0x08, 0x00, 0x00, 0x00, 0xff, 0xff, 0xff, 0xff,
  0x70, 0x00, 0x00, 0x00, 0x00, 0x00, 0x0e, 0x00, 0x18, 0x00, 0x08, 0x00,
  0x07, 0x00, 0x0c, 0x00, 0x10, 0x00, 0x14, 0x00, 0x0e, 0x00, 0x00, 0x00,
  0x00, 0x00, 0x00, 0x02, 0x10, 0x00, 0x00, 0x00, 0x06, 0x00, 0x00, 0x00,
  0x10, 0x00, 0x00, 0x00, 0x2c, 0x00, 0x00, 0x00, 0x01, 0x00, 0x00, 0x00,
  0x02, 0x00, 0x00, 0x00, 0x18, 0x00, 0x00, 0x00, 0x73, 0x65, 0x71, 0x75,
  0x65, 0x6e, 0x74, 0x69, 0x61, 0x6c, 0x2f, 0x66, 0x6c, 0x61, 0x74, 0x74,
  0x65, 0x6e, 0x2f, 0x43, 0x6f, 0x6e, 0x73, 0x74, 0x00, 0x00, 0x00, 0x00,
  0x34, 0xfd, 0xff, 0xff, 0x3e, 0xfe, 0xff, 0xff, 0x04, 0x00, 0x00, 0x00,
  0x10, 0x00, 0x00, 0x00, 0xaa, 0xf1, 0x3a, 0xc0, 0xd7, 0xb7, 0xdc, 0xbf,
  0x8d, 0xa8, 0xe0, 0x3f, 0x6d, 0xeb, 0x2a, 0xbc, 0x26, 0xfe, 0xff, 0xff,
  0x10, 0x00, 0x00, 0x00, 0x05, 0x00, 0x00, 0x00, 0x10, 0x00, 0x00, 0x00,
  0x44, 0x00, 0x00, 0x00, 0x01, 0x00, 0x00, 0x00, 0x04, 0x00, 0x00, 0x00,
  0x32, 0x00, 0x00, 0x00, 0x73, 0x65, 0x71, 0x75, 0x65, 0x6e, 0x74, 0x69,
  0x61, 0x6c, 0x2f, 0x64, 0x65, 0x6e, 0x73, 0x65, 0x5f, 0x31, 0x2f, 0x42,
  0x69, 0x61, 0x73, 0x41, 0x64, 0x64, 0x2f, 0x52, 0x65, 0x61, 0x64, 0x56,
  0x61, 0x72, 0x69, 0x61, 0x62, 0x6c, 0x65, 0x4f, 0x70, 0x2f, 0x72, 0x65,
  0x73, 0x6f, 0x75, 0x72, 0x63, 0x65, 0x00, 0x00, 0xa8, 0xfd, 0xff, 0xff,
  0xb2, 0xfe, 0xff, 0xff, 0x04, 0x00, 0x00, 0x00, 0x40, 0x00, 0x00, 0x00,
  0x7b, 0xe5, 0xc4, 0xbe, 0x3d, 0xd3, 0xab, 0x3f, 0x0b, 0x25, 0x19, 0xbf,
  0xcb, 0x3e, 0x08, 0x3f, 0x9a, 0xd6, 0xd4, 0xbe, 0xd7, 0x4a, 0x70, 0x3e,
  0xee, 0x8c, 0x45, 0x40, 0xa8, 0x2e, 0x89, 0x3f, 0x5c, 0x2d, 0xa1, 0x3f,
  0x99, 0x13, 0x25, 0xbe, 0x8a, 0x57, 0xea, 0x3f, 0xf4, 0x12, 0x3f, 0xbe,
  0x40, 0x39, 0x87, 0x3f, 0xe5, 0xf6, 0x0a, 0x3f, 0x98, 0x85, 0x34, 0xbe,
  0xfb, 0xb6, 0x01, 0xbf, 0xca, 0xfe, 0xff, 0xff, 0x10, 0x00, 0x00, 0x00,
  0x04, 0x00, 0x00, 0x00, 0x10, 0x00, 0x00, 0x00, 0x44, 0x00, 0x00, 0x00,
  0x01, 0x00, 0x00, 0x00, 0x10, 0x00, 0x00, 0x00, 0x30, 0x00, 0x00, 0x00,
  0x73, 0x65, 0x71, 0x75, 0x65, 0x6e, 0x74, 0x69, 0x61, 0x6c, 0x2f, 0x64,
  0x65, 0x6e, 0x73, 0x65, 0x2f, 0x42, 0x69, 0x61, 0x73, 0x41, 0x64, 0x64,
  0x2f, 0x52, 0x65, 0x61, 0x64, 0x56, 0x61, 0x72, 0x69, 0x61, 0x62, 0x6c,
  0x65, 0x4f, 0x70, 0x2f, 0x72, 0x65, 0x73, 0x6f, 0x75, 0x72, 0x63, 0x65,
  0x00, 0x00, 0x00, 0x00, 0x4c, 0xfe, 0xff, 0xff, 0x56, 0xff, 0xff, 0xff,
  0x04, 0x00, 0x00, 0x00, 0x40, 0x00, 0x00, 0x00, 0xe5, 0x25, 0x29, 0x40,
  0x67, 0xac, 0x8b, 0x3f, 0x50, 0xbd, 0xee, 0xbf, 0x2e, 0x76, 0x9b, 0x3f,
  0xc0, 0xf2, 0x1f, 0xbf, 0x5d, 0x9b, 0xd6, 0xbc, 0xd0, 0x69, 0x04, 0xc0,
  0x24, 0x90, 0xb1, 0xbd, 0x59, 0x64, 0x7a, 0x3f, 0x6f, 0x6b, 0xa4, 0xbf,
  0x8c, 0x8c, 0x99, 0xbf, 0x4d, 0x76, 0x8b, 0xbf, 0x60, 0x78, 0xa8, 0xbf,
  0x47, 0x5d, 0x51, 0xbf, 0x29, 0xfc, 0x65, 0x3b, 0x29, 0x2a, 0x3c, 0xbe,
  0x6e, 0xff, 0xff, 0xff, 0x10, 0x00, 0x00, 0x00, 0x03, 0x00, 0x00, 0x00,
  0x10, 0x00, 0x00, 0x00, 0x48, 0x00, 0x00, 0x00, 0x01, 0x00, 0x00, 0x00,
  0x10, 0x00, 0x00, 0x00, 0x33, 0x00, 0x00, 0x00, 0x73, 0x65, 0x71, 0x75,
  0x65, 0x6e, 0x74, 0x69, 0x61, 0x6c, 0x2f, 0x63, 0x6f, 0x6e, 0x76, 0x32,
  0x64, 0x5f, 0x31, 0x2f, 0x42, 0x69, 0x61, 0x73, 0x41, 0x64, 0x64, 0x2f,
  0x52, 0x65, 0x61, 0x64, 0x56, 0x61, 0x72, 0x69, 0x61, 0x62, 0x6c, 0x65,
  0x4f, 0x70, 0x2f, 0x72, 0x65, 0x73, 0x6f, 0x75, 0x72, 0x63, 0x65, 0x00,
  0x04, 0x00, 0x06, 0x00, 0x04, 0x00, 0x00, 0x00, 0x00, 0x00, 0x06, 0x00,
  0x08, 0x00, 0x04, 0x00, 0x06, 0x00, 0x00, 0x00, 0x04, 0x00, 0x00, 0x00,
  0x20, 0x00, 0x00, 0x00, 0xcb, 0xa5, 0xd3, 0xbf, 0xa3, 0x21, 0x04, 0xc0,
  0xbd, 0xb2, 0x90, 0xbd, 0x95, 0x9d, 0x52, 0xbc, 0x36, 0x31, 0x05, 0xc0,
  0x98, 0x30, 0xfc, 0xbf, 0xc6, 0x74, 0x99, 0xbd, 0x6b, 0xe6, 0x06, 0xc0,
  0x00, 0x00, 0x0e, 0x00, 0x14, 0x00, 0x04, 0x00, 0x00, 0x00, 0x08, 0x00,
  0x0c, 0x00, 0x10, 0x00, 0x0e, 0x00, 0x00, 0x00, 0x10, 0x00, 0x00, 0x00,
  0x02, 0x00, 0x00, 0x00, 0x10, 0x00, 0x00, 0x00, 0x44, 0x00, 0x00, 0x00,
  0x01, 0x00, 0x00, 0x00, 0x08, 0x00, 0x00, 0x00, 0x31, 0x00, 0x00, 0x00,
  0x73, 0x65, 0x71, 0x75, 0x65, 0x6e, 0x74, 0x69, 0x61, 0x6c, 0x2f, 0x63,
  0x6f, 0x6e, 0x76, 0x32, 0x64, 0x2f, 0x42, 0x69, 0x61, 0x73, 0x41, 0x64,
  0x64, 0x2f, 0x52, 0x65, 0x61, 0x64, 0x56, 0x61, 0x72, 0x69, 0x61, 0x62,
  0x6c, 0x65, 0x4f, 0x70, 0x2f, 0x72, 0x65, 0x73, 0x6f, 0x75, 0x72, 0x63,
  0x65, 0x00, 0x00, 0x00, 0x90, 0xff, 0xff, 0xff, 0x14, 0x00, 0x18, 0x00,
  0x04, 0x00, 0x00, 0x00, 0x08, 0x00, 0x0c, 0x00, 0x10, 0x00, 0x00, 0x00,
  0x00, 0x00, 0x14, 0x00, 0x14, 0x00, 0x00, 0x00, 0x14, 0x00, 0x00, 0x00,
  0x01, 0x00, 0x00, 0x00, 0x20, 0x00, 0x00, 0x00, 0x44, 0x00, 0x00, 0x00,
  0x2c, 0x00, 0x00, 0x00, 0x04, 0x00, 0x00, 0x00, 0x01, 0x00, 0x00, 0x00,
  0x40, 0x00, 0x00, 0x00, 0x03, 0x00, 0x00, 0x00, 0x01, 0x00, 0x00, 0x00,
  0x0c, 0x00, 0x00, 0x00, 0x63, 0x6f, 0x6e, 0x76, 0x32, 0x64, 0x5f, 0x69,
  0x6e, 0x70, 0x75, 0x74, 0x00, 0x00, 0x00, 0x00, 0x04, 0x00, 0x00, 0x00,
  0xff, 0xff, 0xff, 0xff, 0x40, 0x00, 0x00, 0x00, 0x03, 0x00, 0x00, 0x00,
  0x01, 0x00, 0x00, 0x00, 0xfc, 0xff, 0xff, 0xff, 0x04, 0x00, 0x04, 0x00,
  0x04, 0x00, 0x00, 0x00
  
};

unsigned int model_tflite_len =13120 ;// Fill the int in `src/model.cc` here