unsigned char _content_mbed08_model_model_tflite[] = {
  0x1c, 0x00, 0x00, 0x00, 0x54, 0x46, 0x4c, 0x33, 0x14, 0x00, 0x20, 0x00,
  0x04, 0x00, 0x08, 0x00, 0x0c, 0x00, 0x10, 0x00, 0x14, 0x00, 0x00, 0x00,
  0x18, 0x00, 0x1c, 0x00, 0x14, 0x00, 0x00, 0x00, 0x03, 0x00, 0x00, 0x00,
  0x18, 0x00, 0x00, 0x00, 0x2c, 0x00, 0x00, 0x00, 0xd8, 0x00, 0x00, 0x00,
  0x2c, 0x00, 0x00, 0x00, 0x80, 0x00, 0x00, 0x00, 0x78, 0x00, 0x00, 0x00,
  0x05, 0x00, 0x00, 0x00, 0x28, 0x07, 0x00, 0x00, 0x44, 0x06, 0x00, 0x00,
  0xbc, 0x03, 0x00, 0x00, 0xf8, 0x02, 0x00, 0x00, 0xac, 0x01, 0x00, 0x00,
  0x01, 0x00, 0x00, 0x00, 0xd0, 0x00, 0x00, 0x00, 0x14, 0x00, 0x00, 0x00,
  0x98, 0x32, 0x00, 0x00, 0x94, 0x32, 0x00, 0x00, 0x8c, 0x31, 0x00, 0x00,
  0xd8, 0x30, 0x00, 0x00, 0x30, 0x30, 0x00, 0x00, 0xbc, 0x2f, 0x00, 0x00,
  0x50, 0x2f, 0x00, 0x00, 0x00, 0x13, 0x00, 0x00, 0xec, 0x11, 0x00, 0x00,
  0x10, 0x10, 0x00, 0x00, 0xb4, 0x07, 0x00, 0x00, 0x6c, 0x32, 0x00, 0x00,
  0x68, 0x32, 0x00, 0x00, 0x64, 0x32, 0x00, 0x00, 0x60, 0x32, 0x00, 0x00,
  0x5c, 0x32, 0x00, 0x00, 0x58, 0x32, 0x00, 0x00, 0x54, 0x32, 0x00, 0x00,
  0x50, 0x32, 0x00, 0x00, 0x3c, 0x00, 0x00, 0x00, 0x00, 0x00, 0x00, 0x00,
  0x01, 0x00, 0x00, 0x00, 0x0c, 0x00, 0x00, 0x00, 0x08, 0x00, 0x0c, 0x00,
  0x04, 0x00, 0x08, 0x00, 0x08, 0x00, 0x00, 0x00, 0x08, 0x00, 0x00, 0x00,
  0x13, 0x00, 0x00, 0x00, 0x13, 0x00, 0x00, 0x00, 0x6d, 0x69, 0x6e, 0x5f,
  0x72, 0x75, 0x6e, 0x74, 0x69, 0x6d, 0x65, 0x5f, 0x76, 0x65, 0x72, 0x73,
  0x69, 0x6f, 0x6e, 0x00, 0xfa, 0xce, 0xff, 0xff, 0x04, 0x00, 0x00, 0x00,
  0x10, 0x00, 0x00, 0x00, 0x31, 0x2e, 0x35, 0x2e, 0x30, 0x00, 0x00, 0x00,
  0x00, 0x00, 0x00, 0x00, 0x00, 0x00, 0x00, 0x00, 0x0f, 0x00, 0x00, 0x00,
  0x4d, 0x4c, 0x49, 0x52, 0x20, 0x43, 0x6f, 0x6e, 0x76, 0x65, 0x72, 0x74,
  0x65, 0x64, 0x2e, 0x00, 0x00, 0x00, 0x0e, 0x00, 0x18, 0x00, 0x04, 0x00,
  0x08, 0x00, 0x0c, 0x00, 0x10, 0x00, 0x14, 0x00, 0x0e, 0x00, 0x00, 0x00,
  0x14, 0x00, 0x00, 0x00, 0x5c, 0x00, 0x00, 0x00, 0x60, 0x00, 0x00, 0x00,
  0x64, 0x00, 0x00, 0x00, 0x84, 0x00, 0x00, 0x00, 0x12, 0x00, 0x00, 0x00,
  0x58, 0x31, 0x00, 0x00, 0xe8, 0x30, 0x00, 0x00, 0x44, 0x30, 0x00, 0x00,
  0x9c, 0x2f, 0x00, 0x00, 0xf4, 0x2e, 0x00, 0x00, 0x94, 0x2e, 0x00, 0x00,
  0x2c, 0x2e, 0x00, 0x00, 0xd8, 0x11, 0x00, 0x00, 0xbc, 0x10, 0x00, 0x00,
  0xe0, 0x0e, 0x00, 0x00, 0x0c, 0x06, 0x00, 0x00, 0x28, 0x05, 0x00, 0x00,
  0xe8, 0x03, 0x00, 0x00, 0x3c, 0x03, 0x00, 0x00, 0x98, 0x02, 0x00, 0x00,
  0xd4, 0x01, 0x00, 0x00, 0x10, 0x01, 0x00, 0x00, 0x84, 0x00, 0x00, 0x00,
  0x01, 0x00, 0x00, 0x00, 0x00, 0x00, 0x00, 0x00, 0x01, 0x00, 0x00, 0x00,
  0x11, 0x00, 0x00, 0x00, 0x08, 0x00, 0x00, 0x00, 0x74, 0x05, 0x00, 0x00,
  0x94, 0x04, 0x00, 0x00, 0x78, 0x03, 0x00, 0x00, 0xbc, 0x02, 0x00, 0x00,
  0x30, 0x02, 0x00, 0x00, 0x50, 0x01, 0x00, 0x00, 0xa8, 0x00, 0x00, 0x00,
  0x10, 0x00, 0x00, 0x00, 0x04, 0x00, 0x00, 0x00, 0x6d, 0x61, 0x69, 0x6e,
  0x00, 0x00, 0x00, 0x00, 0x7a, 0xff, 0xff, 0xff, 0x00, 0x00, 0x00, 0x09,
  0x04, 0x00, 0x00, 0x00, 0x1c, 0x00, 0x00, 0x00, 0x10, 0x00, 0x00, 0x00,
  0x04, 0x00, 0x00, 0x00, 0xf6, 0xcf, 0xff, 0xff, 0x00, 0x00, 0x80, 0x3f,
  0x01, 0x00, 0x00, 0x00, 0x11, 0x00, 0x00, 0x00, 0x01, 0x00, 0x00, 0x00,
  0x10, 0x00, 0x00, 0x00, 0xa0, 0xfa, 0xff, 0xff, 0x19, 0x00, 0x00, 0x00,
  0x00, 0x00, 0x00, 0x19, 0x01, 0x00, 0x00, 0x00, 0x84, 0xcf, 0xff, 0xff,
  0x14, 0x00, 0x00, 0x00, 0x12, 0x00, 0x00, 0x00, 0x18, 0x00, 0x00, 0x00,
  0x30, 0x00, 0x00, 0x00, 0x20, 0x00, 0x00, 0x00, 0x02, 0x00, 0x00, 0x00,
  0x01, 0x00, 0x00, 0x00, 0x03, 0x00, 0x00, 0x00, 0x08, 0x00, 0x00, 0x00,
  0x49, 0x64, 0x65, 0x6e, 0x74, 0x69, 0x74, 0x79, 0x00, 0x00, 0x00, 0x00,
  0x02, 0x00, 0x00, 0x00, 0xff, 0xff, 0xff, 0xff, 0x03, 0x00, 0x00, 0x00,
  0x68, 0xd0, 0xff, 0xff, 0x00, 0x00, 0x0e, 0x00, 0x18, 0x00, 0x08, 0x00,
  0x0c, 0x00, 0x10, 0x00, 0x07, 0x00, 0x14, 0x00, 0x0e, 0x00, 0x00, 0x00,
  0x00, 0x00, 0x00, 0x08, 0x03, 0x00, 0x00, 0x00, 0x18, 0x00, 0x00, 0x00,
  0x0c, 0x00, 0x00, 0x00, 0x04, 0x00, 0x00, 0x00, 0x84, 0xcf, 0xff, 0xff,
  0x01, 0x00, 0x00, 0x00, 0x10, 0x00, 0x00, 0x00, 0x03, 0x00, 0x00, 0x00,
  0x0f, 0x00, 0x00, 0x00, 0x07, 0x00, 0x00, 0x00, 0x04, 0x00, 0x00, 0x00,
  0x0c, 0xd0, 0xff, 0xff, 0x14, 0x00, 0x00, 0x00, 0x11, 0x00, 0x00, 0x00,
  0x18, 0x00, 0x00, 0x00, 0x5c, 0x00, 0x00, 0x00, 0x4c, 0x00, 0x00, 0x00,
  0x02, 0x00, 0x00, 0x00, 0x01, 0x00, 0x00, 0x00, 0x03, 0x00, 0x00, 0x00,
  0x34, 0x00, 0x00, 0x00, 0x73, 0x65, 0x71, 0x75, 0x65, 0x6e, 0x74, 0x69,
  0x61, 0x6c, 0x2f, 0x64, 0x65, 0x6e, 0x73, 0x65, 0x5f, 0x31, 0x2f, 0x4d,
  0x61, 0x74, 0x4d, 0x75, 0x6c, 0x3b, 0x73, 0x65, 0x71, 0x75, 0x65, 0x6e,
  0x74, 0x69, 0x61, 0x6c, 0x2f, 0x64, 0x65, 0x6e, 0x73, 0x65, 0x5f, 0x31,
  0x2f, 0x42, 0x69, 0x61, 0x73, 0x41, 0x64, 0x64, 0x00, 0x00, 0x00, 0x00,
  0x02, 0x00, 0x00, 0x00, 0xff, 0xff, 0xff, 0xff, 0x03, 0x00, 0x00, 0x00,
  0x0c, 0xd0, 0xff, 0xff, 0xda, 0xfc, 0xff, 0xff, 0x00, 0x00, 0x00, 0x08,
  0x03, 0x00, 0x00, 0x00, 0x24, 0x00, 0x00, 0x00, 0x18, 0x00, 0x00, 0x00,
  0x0c, 0x00, 0x00, 0x00, 0x00, 0x00, 0x06, 0x00, 0x08, 0x00, 0x07, 0x00,
  0x06, 0x00, 0x00, 0x00, 0x00, 0x00, 0x00, 0x01, 0x01, 0x00, 0x00, 0x00,
  0x0f, 0x00, 0x00, 0x00, 0x03, 0x00, 0x00, 0x00, 0x0e, 0x00, 0x00, 0x00,
  0x06, 0x00, 0x00, 0x00, 0x03, 0x00, 0x00, 0x00, 0xe8, 0xfb, 0xff, 0xff,
  0x09, 0x00, 0x00, 0x00, 0x00, 0x00, 0x00, 0x09, 0x01, 0x00, 0x00, 0x00,
  0xcc, 0xd0, 0xff, 0xff, 0x14, 0x00, 0x00, 0x00, 0x10, 0x00, 0x00, 0x00,
  0x18, 0x00, 0x00, 0x00, 0x6c, 0x00, 0x00, 0x00, 0x5c, 0x00, 0x00, 0x00,
  0x02, 0x00, 0x00, 0x00, 0x01, 0x00, 0x00, 0x00, 0x10, 0x00, 0x00, 0x00,
  0x46, 0x00, 0x00, 0x00, 0x73, 0x65, 0x71, 0x75, 0x65, 0x6e, 0x74, 0x69,
  0x61, 0x6c, 0x2f, 0x64, 0x65, 0x6e, 0x73, 0x65, 0x2f, 0x4d, 0x61, 0x74,
  0x4d, 0x75, 0x6c, 0x3b, 0x73, 0x65, 0x71, 0x75, 0x65, 0x6e, 0x74, 0x69,
  0x61, 0x6c, 0x2f, 0x64, 0x65, 0x6e, 0x73, 0x65, 0x2f, 0x52, 0x65, 0x6c,
  0x75, 0x3b, 0x73, 0x65, 0x71, 0x75, 0x65, 0x6e, 0x74, 0x69, 0x61, 0x6c,
  0x2f, 0x64, 0x65, 0x6e, 0x73, 0x65, 0x2f, 0x42, 0x69, 0x61, 0x73, 0x41,
  0x64, 0x64, 0x00, 0x00, 0x02, 0x00, 0x00, 0x00, 0xff, 0xff, 0xff, 0xff,
  0x10, 0x00, 0x00, 0x00, 0xec, 0xd1, 0xff, 0xff, 0x00, 0x00, 0x0a, 0x00,
  0x10, 0x00, 0x04, 0x00, 0x08, 0x00, 0x0c, 0x00, 0x0a, 0x00, 0x00, 0x00,
  0x02, 0x00, 0x00, 0x00, 0x10, 0x00, 0x00, 0x00, 0x04, 0x00, 0x00, 0x00,
  0x01, 0x00, 0x00, 0x00, 0x0e, 0x00, 0x00, 0x00, 0x02, 0x00, 0x00, 0x00,
  0x0d, 0x00, 0x00, 0x00, 0x05, 0x00, 0x00, 0x00, 0xa8, 0xfc, 0xff, 0xff,
  0x16, 0x00, 0x00, 0x00, 0x00, 0x00, 0x00, 0x16, 0x01, 0x00, 0x00, 0x00,
  0x8c, 0xd1, 0xff, 0xff, 0x14, 0x00, 0x00, 0x00, 0x0f, 0x00, 0x00, 0x00,
  0x18, 0x00, 0x00, 0x00, 0x40, 0x00, 0x00, 0x00, 0x30, 0x00, 0x00, 0x00,
  0x02, 0x00, 0x00, 0x00, 0x01, 0x00, 0x00, 0x00, 0x70, 0x00, 0x00, 0x00,
  0x1a, 0x00, 0x00, 0x00, 0x73, 0x65, 0x71, 0x75, 0x65, 0x6e, 0x74, 0x69,
  0x61, 0x6c, 0x2f, 0x66, 0x6c, 0x61, 0x74, 0x74, 0x65, 0x6e, 0x2f, 0x52,
  0x65, 0x73, 0x68, 0x61, 0x70, 0x65, 0x00, 0x00, 0x02, 0x00, 0x00, 0x00,
  0xff, 0xff, 0xff, 0xff, 0x70, 0x00, 0x00, 0x00, 0x70, 0xd1, 0xff, 0xff,
  0x3e, 0xfe, 0xff, 0xff, 0x00, 0x00, 0x00, 0x05, 0x01, 0x00, 0x00, 0x00,
  0x38, 0x00, 0x00, 0x00, 0x2c, 0x00, 0x00, 0x00, 0x14, 0x00, 0x00, 0x00,
  0x00, 0x00, 0x0e, 0x00, 0x14, 0x00, 0x00, 0x00, 0x10, 0x00, 0x0c, 0x00,
  0x08, 0x00, 0x04, 0x00, 0x0e, 0x00, 0x00, 0x00, 0x03, 0x00, 0x00, 0x00,
  0x01, 0x00, 0x00, 0x00, 0x03, 0x00, 0x00, 0x00, 0x01, 0x00, 0x00, 0x00,
  0x01, 0x00, 0x00, 0x00, 0x0d, 0x00, 0x00, 0x00, 0x01, 0x00, 0x00, 0x00,
  0x0c, 0x00, 0x00, 0x00, 0x2c, 0xd2, 0xff, 0xff, 0x14, 0x00, 0x00, 0x00,
  0x0e, 0x00, 0x00, 0x00, 0x20, 0x00, 0x00, 0x00, 0x58, 0x00, 0x00, 0x00,
  0x40, 0x00, 0x00, 0x00, 0x04, 0x00, 0x00, 0x00, 0x01, 0x00, 0x00, 0x00,
  0x07, 0x00, 0x00, 0x00, 0x01, 0x00, 0x00, 0x00, 0x10, 0x00, 0x00, 0x00,
  0x22, 0x00, 0x00, 0x00, 0x73, 0x65, 0x71, 0x75, 0x65, 0x6e, 0x74, 0x69,
  0x61, 0x6c, 0x2f, 0x6d, 0x61, 0x78, 0x5f, 0x70, 0x6f, 0x6f, 0x6c, 0x69,
  0x6e, 0x67, 0x32, 0x64, 0x5f, 0x31, 0x2f, 0x4d, 0x61, 0x78, 0x50, 0x6f,
  0x6f, 0x6c, 0x00, 0x00, 0x04, 0x00, 0x00, 0x00, 0xff, 0xff, 0xff, 0xff,
  0x07, 0x00, 0x00, 0x00, 0x01, 0x00, 0x00, 0x00, 0x10, 0x00, 0x00, 0x00,
  0x28, 0xd2, 0xff, 0xff, 0x1a, 0xfe, 0xff, 0xff, 0x00, 0x00, 0x00, 0x01,
  0x24, 0x00, 0x00, 0x00, 0x18, 0x00, 0x00, 0x00, 0x04, 0x00, 0x00, 0x00,
  0x0c, 0xfe, 0xff, 0xff, 0x01, 0x00, 0x00, 0x00, 0x01, 0x00, 0x00, 0x00,
  0x00, 0x00, 0x00, 0x01, 0x01, 0x00, 0x00, 0x00, 0x0c, 0x00, 0x00, 0x00,
  0x03, 0x00, 0x00, 0x00, 0x0b, 0x00, 0x00, 0x00, 0x09, 0x00, 0x00, 0x00,
  0x02, 0x00, 0x00, 0x00, 0xd4, 0xd2, 0xff, 0xff, 0x14, 0x00, 0x00, 0x00,
  0x0d, 0x00, 0x00, 0x00, 0x20, 0x00, 0x00, 0x00, 0xb8, 0x00, 0x00, 0x00,
  0xa0, 0x00, 0x00, 0x00, 0x04, 0x00, 0x00, 0x00, 0x01, 0x00, 0x00, 0x00,
  0x15, 0x00, 0x00, 0x00, 0x01, 0x00, 0x00, 0x00, 0x10, 0x00, 0x00, 0x00,
  0x83, 0x00, 0x00, 0x00, 0x73, 0x65, 0x71, 0x75, 0x65, 0x6e, 0x74, 0x69,
  0x61, 0x6c, 0x2f, 0x63, 0x6f, 0x6e, 0x76, 0x32, 0x64, 0x5f, 0x31, 0x2f,
  0x52, 0x65, 0x6c, 0x75, 0x3b, 0x73, 0x65, 0x71, 0x75, 0x65, 0x6e, 0x74,
  0x69, 0x61, 0x6c, 0x2f, 0x63, 0x6f, 0x6e, 0x76, 0x32, 0x64, 0x5f, 0x31,
  0x2f, 0x42, 0x69, 0x61, 0x73, 0x41, 0x64, 0x64, 0x3b, 0x73, 0x65, 0x71,
  0x75, 0x65, 0x6e, 0x74, 0x69, 0x61, 0x6c, 0x2f, 0x63, 0x6f, 0x6e, 0x76,
  0x32, 0x64, 0x5f, 0x31, 0x2f, 0x43, 0x6f, 0x6e, 0x76, 0x32, 0x44, 0x3b,
  0x73, 0x65, 0x71, 0x75, 0x65, 0x6e, 0x74, 0x69, 0x61, 0x6c, 0x2f, 0x63,
  0x6f, 0x6e, 0x76, 0x32, 0x64, 0x5f, 0x31, 0x2f, 0x42, 0x69, 0x61, 0x73,
  0x41, 0x64, 0x64, 0x2f, 0x52, 0x65, 0x61, 0x64, 0x56, 0x61, 0x72, 0x69,
  0x61, 0x62, 0x6c, 0x65, 0x4f, 0x70, 0x2f, 0x72, 0x65, 0x73, 0x6f, 0x75,
  0x72, 0x63, 0x65, 0x00, 0x04, 0x00, 0x00, 0x00, 0xff, 0xff, 0xff, 0xff,
  0x15, 0x00, 0x00, 0x00, 0x01, 0x00, 0x00, 0x00, 0x10, 0x00, 0x00, 0x00,
  0x40, 0xd4, 0xff, 0xff, 0x00, 0x00, 0x0e, 0x00, 0x1a, 0x00, 0x08, 0x00,
  0x0c, 0x00, 0x10, 0x00, 0x07, 0x00, 0x14, 0x00, 0x0e, 0x00, 0x00, 0x00,
  0x00, 0x00, 0x00, 0x05, 0x01, 0x00, 0x00, 0x00, 0x3c, 0x00, 0x00, 0x00,
  0x30, 0x00, 0x00, 0x00, 0x14, 0x00, 0x00, 0x00, 0x00, 0x00, 0x0e, 0x00,
  0x18, 0x00, 0x17, 0x00, 0x10, 0x00, 0x0c, 0x00, 0x08, 0x00, 0x04, 0x00,
  0x0e, 0x00, 0x00, 0x00, 0x03, 0x00, 0x00, 0x00, 0x03, 0x00, 0x00, 0x00,
  0x03, 0x00, 0x00, 0x00, 0x03, 0x00, 0x00, 0x00, 0x00, 0x00, 0x00, 0x01,
  0x01, 0x00, 0x00, 0x00, 0x0b, 0x00, 0x00, 0x00, 0x01, 0x00, 0x00, 0x00,
  0x0a, 0x00, 0x00, 0x00, 0x2c, 0xff, 0xff, 0xff, 0x11, 0x00, 0x00, 0x00,
  0x00, 0x00, 0x00, 0x11, 0x01, 0x00, 0x00, 0x00, 0x10, 0xd4, 0xff, 0xff,
  0x14, 0x00, 0x00, 0x00, 0x0c, 0x00, 0x00, 0x00, 0x20, 0x00, 0x00, 0x00,
  0x58, 0x00, 0x00, 0x00, 0x40, 0x00, 0x00, 0x00, 0x04, 0x00, 0x00, 0x00,
  0x01, 0x00, 0x00, 0x00, 0x15, 0x00, 0x00, 0x00, 0x01, 0x00, 0x00, 0x00,
  0x08, 0x00, 0x00, 0x00, 0x20, 0x00, 0x00, 0x00, 0x73, 0x65, 0x71, 0x75,
  0x65, 0x6e, 0x74, 0x69, 0x61, 0x6c, 0x2f, 0x6d, 0x61, 0x78, 0x5f, 0x70,
  0x6f, 0x6f, 0x6c, 0x69, 0x6e, 0x67, 0x32, 0x64, 0x2f, 0x4d, 0x61, 0x78,
  0x50, 0x6f, 0x6f, 0x6c, 0x00, 0x00, 0x00, 0x00, 0x04, 0x00, 0x00, 0x00,
  0xff, 0xff, 0xff, 0xff, 0x15, 0x00, 0x00, 0x00, 0x01, 0x00, 0x00, 0x00,
  0x08, 0x00, 0x00, 0x00, 0x1c, 0xd5, 0xff, 0xff, 0x00, 0x00, 0x0e, 0x00,
  0x14, 0x00, 0x00, 0x00, 0x08, 0x00, 0x0c, 0x00, 0x07, 0x00, 0x10, 0x00,
  0x0e, 0x00, 0x00, 0x00, 0x00, 0x00, 0x00, 0x01, 0x30, 0x00, 0x00, 0x00,
  0x24, 0x00, 0x00, 0x00, 0x10, 0x00, 0x00, 0x00, 0x0c, 0x00, 0x10, 0x00,
  0x00, 0x00, 0x04, 0x00, 0x08, 0x00, 0x0f, 0x00, 0x0c, 0x00, 0x00, 0x00,
  0x01, 0x00, 0x00, 0x00, 0x01, 0x00, 0x00, 0x00, 0x00, 0x00, 0x00, 0x01,
  0x01, 0x00, 0x00, 0x00, 0x0a, 0x00, 0x00, 0x00, 0x03, 0x00, 0x00, 0x00,
  0x00, 0x00, 0x00, 0x00, 0x08, 0x00, 0x00, 0x00, 0x01, 0x00, 0x00, 0x00,
  0x0c, 0x00, 0x10, 0x00, 0x0b, 0x00, 0x00, 0x00, 0x0c, 0x00, 0x04, 0x00,
  0x0c, 0x00, 0x00, 0x00, 0x03, 0x00, 0x00, 0x00, 0x00, 0x00, 0x00, 0x03,
  0x01, 0x00, 0x00, 0x00, 0xf0, 0xd4, 0xff, 0xff, 0x14, 0x00, 0x00, 0x00,
  0x0b, 0x00, 0x00, 0x00, 0x20, 0x00, 0x00, 0x00, 0xb0, 0x00, 0x00, 0x00,
  0x98, 0x00, 0x00, 0x00, 0x04, 0x00, 0x00, 0x00, 0x01, 0x00, 0x00, 0x00,
  0x40, 0x00, 0x00, 0x00, 0x03, 0x00, 0x00, 0x00, 0x08, 0x00, 0x00, 0x00,
  0x7b, 0x00, 0x00, 0x00, 0x73, 0x65, 0x71, 0x75, 0x65, 0x6e, 0x74, 0x69,
  0x61, 0x6c, 0x2f, 0x63, 0x6f, 0x6e, 0x76, 0x32, 0x64, 0x2f, 0x52, 0x65,
  0x6c, 0x75, 0x3b, 0x73, 0x65, 0x71, 0x75, 0x65, 0x6e, 0x74, 0x69, 0x61,
  0x6c, 0x2f, 0x63, 0x6f, 0x6e, 0x76, 0x32, 0x64, 0x2f, 0x42, 0x69, 0x61,
  0x73, 0x41, 0x64, 0x64, 0x3b, 0x73, 0x65, 0x71, 0x75, 0x65, 0x6e, 0x74,
  0x69, 0x61, 0x6c, 0x2f, 0x63, 0x6f, 0x6e, 0x76, 0x32, 0x64, 0x2f, 0x43,
  0x6f, 0x6e, 0x76, 0x32, 0x44, 0x3b, 0x73, 0x65, 0x71, 0x75, 0x65, 0x6e,
  0x74, 0x69, 0x61, 0x6c, 0x2f, 0x63, 0x6f, 0x6e, 0x76, 0x32, 0x64, 0x2f,
  0x42, 0x69, 0x61, 0x73, 0x41, 0x64, 0x64, 0x2f, 0x52, 0x65, 0x61, 0x64,
  0x56, 0x61, 0x72, 0x69, 0x61, 0x62, 0x6c, 0x65, 0x4f, 0x70, 0x2f, 0x72,
  0x65, 0x73, 0x6f, 0x75, 0x72, 0x63, 0x65, 0x00, 0x04, 0x00, 0x00, 0x00,
  0xff, 0xff, 0xff, 0xff, 0x40, 0x00, 0x00, 0x00, 0x03, 0x00, 0x00, 0x00,
  0x08, 0x00, 0x00, 0x00, 0x44, 0xd5, 0xff, 0xff, 0x4e, 0xd6, 0xff, 0xff,
  0x04, 0x00, 0x00, 0x00, 0x00, 0x08, 0x00, 0x00, 0xd2, 0xd7, 0xa4, 0x3e,
  0x43, 0x6c, 0xfc, 0xbd, 0x93, 0x84, 0x68, 0xba, 0xfc, 0x1a, 0x9d, 0xbb,
  0x57, 0x0d, 0xf2, 0xba, 0xeb, 0xc8, 0xce, 0x3d, 0x2d, 0x84, 0x54, 0xbd,
  0x4b, 0x9f, 0x29, 0x3e, 0x73, 0xa7, 0x91, 0xbc, 0xb0, 0x10, 0x36, 0x3e,
  0x1a, 0xf6, 0x68, 0xbd, 0x4c, 0xd4, 0x15, 0xbe, 0xc9, 0xef, 0x3d, 0x3e,
  0xc4, 0x52, 0xff, 0xbb, 0xd4, 0x5d, 0xbd, 0xbd, 0xee, 0xc7, 0xec, 0xbd,
  0xac, 0x6e, 0x6e, 0x3e, 0xc7, 0x28, 0x83, 0x3d, 0x98, 0xec, 0x94, 0x3c,
  0xfb, 0x34, 0xbe, 0xbd, 0x00, 0x43, 0x08, 0xbe, 0x47, 0x0a, 0x11, 0x3e,
  0xcc, 0x4d, 0x68, 0xbd, 0xfd, 0xb3, 0xed, 0xbc, 0xd7, 0x87, 0x0d, 0x3e,
  0x04, 0x39, 0x00, 0xbd, 0xdc, 0x30, 0xbf, 0xbd, 0xb6, 0xa6, 0x80, 0x3c,
  0xe0, 0x8a, 0xa6, 0x3d, 0x84, 0x67, 0xe5, 0xbb, 0x46, 0x4d, 0x79, 0xbd,
  0x98, 0x09, 0xec, 0xbd, 0x9d, 0x95, 0xad, 0xbd, 0xbd, 0x80, 0xcf, 0xbe,
  0xb4, 0x3d, 0xc2, 0xbd, 0x40, 0x81, 0x85, 0xbc, 0xf5, 0xc4, 0xc9, 0xbe,
  0x82, 0x51, 0x7d, 0xbe, 0xf8, 0xcb, 0xa0, 0xbd, 0x13, 0x02, 0x87, 0xbe,
  0x50, 0x5f, 0xf1, 0xbc, 0x0d, 0xa6, 0xc1, 0xbb, 0x10, 0x3f, 0x73, 0xbd,
  0x44, 0x24, 0xc6, 0x3d, 0xda, 0x42, 0xe6, 0xbb, 0xb1, 0x52, 0x64, 0x3d,
  0x75, 0x6a, 0xa5, 0xbe, 0xd3, 0xf7, 0x7c, 0xbe, 0x20, 0x4d, 0xed, 0x3d,
  0x46, 0x65, 0x6a, 0x3e, 0xaf, 0x9a, 0x07, 0xbd, 0x6f, 0x08, 0xa0, 0xbd,
  0xe9, 0xe1, 0xf9, 0x3e, 0xd4, 0x6a, 0x23, 0x3e, 0x77, 0x0f, 0x2b, 0xbf,
  0x3a, 0xfa, 0xc8, 0x3c, 0x25, 0xa7, 0x3d, 0x3d, 0x23, 0xd4, 0x01, 0x3e,
  0x2f, 0x34, 0x4d, 0xbd, 0x2b, 0x28, 0x67, 0xbe, 0xe0, 0xd3, 0xa1, 0xbc,
  0x33, 0x55, 0x1f, 0xbd, 0x67, 0x58, 0x89, 0xbe, 0x45, 0x83, 0xb1, 0xbc,
  0x42, 0x06, 0xda, 0xbb, 0xbe, 0x5c, 0x98, 0xbe, 0x5a, 0x71, 0x2a, 0xbd,
  0xe0, 0xb0, 0x74, 0x3e, 0x4c, 0x24, 0x28, 0x3b, 0x31, 0x7e, 0x0a, 0x3e,
  0x1c, 0xfd, 0x95, 0xbe, 0x00, 0xf7, 0xa4, 0xbe, 0x12, 0x94, 0x92, 0xbd,
  0x67, 0x1a, 0x14, 0x3f, 0xbf, 0xcb, 0x45, 0x3e, 0xbc, 0x5e, 0x13, 0xbe,
  0xd5, 0x47, 0x22, 0xbd, 0x01, 0x2a, 0x47, 0xbd, 0x1e, 0x03, 0x43, 0xbe,
  0xa8, 0xab, 0x4b, 0xbe, 0xef, 0xd3, 0xb4, 0x3c, 0xdf, 0x82, 0x01, 0x3f,
  0x53, 0x37, 0x11, 0xbe, 0xe6, 0xb8, 0xa6, 0xbe, 0x0e, 0x16, 0x11, 0xbe,
  0xa4, 0x7d, 0x15, 0xbe, 0xb2, 0x82, 0x26, 0xbe, 0x3a, 0xe4, 0x00, 0x3d,
  0x4b, 0xd1, 0x42, 0xbd, 0x0d, 0xb9, 0xf0, 0xbd, 0x30, 0x30, 0x4f, 0xbe,
  0x4f, 0xe9, 0x87, 0xbe, 0xd2, 0x17, 0x8a, 0xbe, 0xba, 0xff, 0xcb, 0xbd,
  0x4f, 0xc7, 0x74, 0x3d, 0xc2, 0x8a, 0x00, 0x3e, 0xab, 0xd8, 0x33, 0x3c,
  0x1f, 0x83, 0x1c, 0x3e, 0x8c, 0x58, 0xe0, 0x3b, 0x74, 0x1d, 0x60, 0x3e,
  0xec, 0xa4, 0xef, 0xbb, 0xd8, 0xb3, 0xf1, 0x3e, 0x1f, 0xdd, 0x1e, 0xbf,
  0xa8, 0x60, 0x05, 0xbf, 0xb7, 0x52, 0x8d, 0x3d, 0x36, 0x1f, 0x6f, 0x3e,
  0x9d, 0xd8, 0x6b, 0x3d, 0xf3, 0x68, 0x8c, 0xbd, 0xe2, 0x26, 0x22, 0x3e,
  0xe0, 0x97, 0x02, 0xbe, 0x29, 0x9d, 0x3e, 0xbf, 0xdc, 0x06, 0x0a, 0xbe,
  0x0a, 0x67, 0xa1, 0xbd, 0xa4, 0x57, 0x24, 0xbd, 0x3d, 0xf0, 0xf1, 0xbc,
  0xc6, 0x82, 0x75, 0xbe, 0xcd, 0xf5, 0x3a, 0x3d, 0xd0, 0x78, 0xbf, 0xbe,
  0x1c, 0x8e, 0x97, 0xbe, 0x09, 0x28, 0x81, 0x3e, 0x8c, 0x1b, 0x01, 0xbe,
  0xf1, 0xaa, 0x86, 0x3e, 0xd8, 0x55, 0xd2, 0xbd, 0x0a, 0xb3, 0x66, 0xbe,
  0xd5, 0xaf, 0x9e, 0xbe, 0x0d, 0x3f, 0xcf, 0xbe, 0xba, 0x5e, 0x98, 0xbd,
  0x22, 0x66, 0x4d, 0x3d, 0x46, 0xd8, 0x72, 0xbe, 0x0a, 0xd2, 0x05, 0x3f,
  0x6c, 0xbd, 0xfb, 0xbe, 0x81, 0x1d, 0x03, 0xbf, 0x0d, 0x3c, 0x3a, 0xbe,
  0x7a, 0x45, 0x4a, 0xbb, 0xef, 0xc5, 0x78, 0xbd, 0xd5, 0xda, 0x39, 0xbe,
  0x67, 0xb2, 0x58, 0xbe, 0x2c, 0xa8, 0x32, 0x3e, 0xe0, 0x94, 0x08, 0xbf,
  0xa5, 0x7b, 0x23, 0xbe, 0x59, 0x7a, 0x87, 0x3d, 0x03, 0xe1, 0x8e, 0xbd,
  0x9a, 0x0d, 0xaa, 0xbd, 0x9a, 0x76, 0xcc, 0x3e, 0x24, 0x92, 0xa3, 0xbd,
  0x98, 0x9a, 0x88, 0xbe, 0x0c, 0x51, 0x10, 0x3e, 0x7f, 0xc1, 0xaf, 0x3e,
  0xa8, 0x22, 0x8e, 0x3e, 0xd6, 0xbe, 0x1d, 0xbe, 0xed, 0x0b, 0xbd, 0x3d,
  0xf0, 0xaa, 0x44, 0xbe, 0xa3, 0xca, 0x3c, 0xbb, 0x8c, 0xae, 0xb6, 0xbe,
  0x9c, 0xb0, 0x2f, 0x3e, 0xe2, 0x49, 0x5a, 0xbd, 0x58, 0x41, 0xc1, 0xbd,
  0x50, 0x0c, 0x58, 0xbd, 0xca, 0xdf, 0x70, 0xbd, 0xc8, 0x45, 0x01, 0xbe,
  0x97, 0x0f, 0x89, 0xbe, 0xd2, 0xdd, 0x3d, 0x3e, 0xe4, 0x38, 0x2c, 0xbf,
  0x17, 0xd1, 0x50, 0xbe, 0x54, 0xad, 0x1b, 0x3e, 0x58, 0x7a, 0x0f, 0xbb,
  0xc7, 0x60, 0x0a, 0x3d, 0x81, 0x02, 0x08, 0x3f, 0xb1, 0x1d, 0x59, 0xbe,
  0xd2, 0xde, 0x23, 0xbe, 0x33, 0x80, 0x45, 0xbe, 0xd7, 0xa4, 0xb8, 0x3d,
  0x56, 0x85, 0x02, 0x3e, 0x01, 0x50, 0xb5, 0xbe, 0xe4, 0x51, 0xfe, 0xbc,
  0x28, 0x54, 0x24, 0xbe, 0x8b, 0x93, 0x82, 0xbd, 0xd2, 0x79, 0x3a, 0xbe,
  0xe8, 0x78, 0x9f, 0x3e, 0xe3, 0x1e, 0xee, 0x3e, 0x1a, 0x10, 0xc2, 0x3d,
  0xa8, 0x52, 0xa8, 0xbe, 0x32, 0x1b, 0x2d, 0x3e, 0xe0, 0x20, 0x25, 0xbe,
  0x1f, 0xae, 0x6d, 0x3c, 0x06, 0x3f, 0xea, 0x3d, 0x44, 0x3a, 0xe5, 0x3d,
  0x83, 0x60, 0xc8, 0xbe, 0x3d, 0xca, 0x6f, 0xbe, 0xfa, 0xd2, 0x9f, 0xbe,
  0xf5, 0x0e, 0xf3, 0xbe, 0xf8, 0xd7, 0x3f, 0x3d, 0xe4, 0xa9, 0x3d, 0xbd,
  0xc4, 0x21, 0x1c, 0xbe, 0xf4, 0xf3, 0xda, 0xbd, 0x9d, 0x4d, 0xba, 0xbd,
  0xc2, 0xcd, 0x30, 0xbe, 0x3b, 0x06, 0xa4, 0xbb, 0xff, 0x93, 0x09, 0xbe,
  0x77, 0x43, 0xc3, 0xbe, 0x94, 0x33, 0x3e, 0xbd, 0x07, 0x29, 0x74, 0xbe,
  0xc0, 0x5d, 0x0d, 0x3d, 0x7a, 0xee, 0xa9, 0x3d, 0x41, 0xf5, 0x45, 0x3d,
  0xbf, 0xd4, 0x69, 0xbe, 0x11, 0xdb, 0x16, 0x3e, 0x3d, 0x03, 0xab, 0xbe,
  0x00, 0x1c, 0xa4, 0xbc, 0x2e, 0x85, 0xa6, 0xbc, 0x0c, 0xb2, 0x3c, 0xbd,
  0xca, 0x3b, 0x46, 0xbe, 0xc0, 0x25, 0x60, 0xbe, 0x96, 0xef, 0x07, 0xbe,
  0x94, 0x96, 0x8f, 0xbe, 0x2b, 0xef, 0x32, 0xbe, 0x90, 0x10, 0x29, 0x3e,
  0x95, 0xba, 0xfb, 0x3d, 0xc0, 0x00, 0xa1, 0x3d, 0xb7, 0x20, 0xd5, 0x3d,
  0xef, 0xfe, 0xed, 0x3d, 0x6a, 0x66, 0x23, 0x3e, 0x69, 0xd9, 0xa1, 0xbe,
  0xdf, 0x2a, 0xdb, 0xbd, 0xa6, 0xa4, 0x3c, 0xbe, 0xa6, 0xc3, 0x13, 0x3d,
  0x3c, 0x63, 0x2f, 0x3c, 0x9d, 0xe4, 0x13, 0x3d, 0xd6, 0xab, 0xa8, 0x3d,
  0xc2, 0x23, 0x67, 0xbd, 0xa3, 0x6f, 0x92, 0xbd, 0xb6, 0x07, 0x41, 0x3f,
  0xa7, 0x5e, 0x09, 0xbe, 0x1c, 0x1a, 0x25, 0x3e, 0x6b, 0x7e, 0x7e, 0xbc,
  0xdd, 0xc1, 0x03, 0x3d, 0x26, 0xfb, 0x99, 0x3b, 0xbb, 0x34, 0xbe, 0xbd,
  0x8f, 0x5e, 0x62, 0xbd, 0x4a, 0x6d, 0x9f, 0xbd, 0xb6, 0xf9, 0x38, 0xbe,
  0x5d, 0x2c, 0x0c, 0x3e, 0xd8, 0xee, 0xa6, 0x3d, 0x6a, 0xb9, 0x71, 0xbe,
  0x90, 0x40, 0x13, 0x3e, 0xe6, 0xf2, 0x11, 0xbe, 0x86, 0xd3, 0x04, 0xbe,
  0x2a, 0x0d, 0x35, 0x3b, 0x57, 0x22, 0x20, 0xbe, 0xc4, 0x66, 0x13, 0x3e,
  0x6e, 0xa1, 0x0d, 0x3e, 0x4c, 0xaf, 0x6a, 0x3d, 0x9a, 0x4a, 0xa6, 0x3d,
  0x13, 0xfb, 0x2a, 0xbe, 0xad, 0x5b, 0x43, 0xbe, 0xd8, 0x79, 0x2d, 0xbe,
  0x62, 0x18, 0x30, 0xbe, 0xa4, 0xe0, 0x1d, 0xbe, 0x25, 0x4f, 0x83, 0xbe,
  0xa6, 0xd2, 0xc1, 0xbd, 0xbf, 0x98, 0xb0, 0xbe, 0x93, 0x2f, 0x26, 0xbe,
  0xb9, 0x55, 0x01, 0x3e, 0x8f, 0x09, 0xf4, 0xbd, 0xdf, 0xe3, 0x29, 0xbe,
  0x6c, 0x25, 0xd8, 0xbe, 0x4f, 0x42, 0x0f, 0xbe, 0x0d, 0x1f, 0x93, 0xbd,
  0x82, 0xb9, 0x14, 0xbe, 0x48, 0xb5, 0x00, 0xbe, 0x52, 0x52, 0xdb, 0x3d,
  0x7a, 0x8b, 0x4c, 0xbe, 0xb8, 0x15, 0xf2, 0xbd, 0x8e, 0x63, 0x24, 0xbe,
  0x8b, 0x53, 0xa2, 0xbc, 0x7c, 0x67, 0x75, 0x3e, 0x59, 0x22, 0xf5, 0x3e,
  0xff, 0x5a, 0x45, 0x3d, 0x95, 0x2e, 0x96, 0xbd, 0x3b, 0xda, 0x0d, 0xbe,
  0x1d, 0x6b, 0x89, 0x3e, 0x11, 0xc5, 0xbf, 0x3d, 0xa7, 0xc2, 0xf9, 0x3d,
  0x4c, 0xb9, 0x9a, 0x3d, 0x68, 0x47, 0xed, 0x3e, 0x52, 0x84, 0xb1, 0x3c,
  0x81, 0x28, 0x97, 0xbe, 0xa6, 0x29, 0x21, 0xbe, 0x67, 0xc1, 0x93, 0xbd,
  0x3d, 0xfb, 0x30, 0xbd, 0x26, 0x03, 0x6c, 0x3e, 0xb5, 0xb0, 0x09, 0xbe,
  0x2a, 0xfa, 0x7d, 0xbb, 0x7a, 0xd7, 0x8c, 0x3d, 0xe8, 0x5f, 0x2d, 0x3d,
  0xd2, 0x81, 0xd2, 0x3e, 0x5e, 0x2a, 0x80, 0xbd, 0x0d, 0x7a, 0x2b, 0x3e,
  0xc3, 0x1b, 0x7e, 0xbd, 0x2c, 0x9b, 0x85, 0xbd, 0x9f, 0xf1, 0xd4, 0x3d,
  0xe1, 0x35, 0xff, 0x3c, 0x35, 0xa9, 0xca, 0x3b, 0x0d, 0xdb, 0xad, 0xbb,
  0x61, 0xa9, 0x94, 0xbc, 0x83, 0x89, 0x43, 0x3d, 0x7c, 0x8f, 0xb5, 0x3d,
  0x6f, 0xd6, 0xd5, 0x3e, 0xd9, 0x89, 0x6d, 0xbe, 0x06, 0x6a, 0x23, 0x3c,
  0xde, 0x22, 0x09, 0x3d, 0x2b, 0xea, 0xab, 0xbc, 0xd2, 0xf6, 0x95, 0x3d,
  0xb4, 0xdd, 0x4d, 0xbe, 0xb8, 0x23, 0x22, 0x3e, 0x26, 0x87, 0x85, 0xbc,
  0x54, 0x49, 0x71, 0x3e, 0x6f, 0xb1, 0xb2, 0x3c, 0xa7, 0x94, 0x32, 0x3d,
  0x3a, 0xe8, 0x00, 0xbd, 0x63, 0x8e, 0x6b, 0xbe, 0x6f, 0x0f, 0x0d, 0xbf,
  0x6b, 0xc1, 0x4d, 0xbe, 0xfb, 0x0f, 0x55, 0xbe, 0x6f, 0xa8, 0xc5, 0xbe,
  0xa1, 0x31, 0x19, 0xbe, 0x2c, 0x26, 0xe7, 0xbd, 0x6c, 0xc0, 0x7a, 0xbe,
  0x1f, 0xb0, 0x98, 0x3d, 0xca, 0x8a, 0x35, 0xbd, 0x65, 0xbf, 0x28, 0xbe,
  0xa3, 0xf2, 0x20, 0xbe, 0xb7, 0x1a, 0x94, 0x3e, 0x38, 0x26, 0xc6, 0xbc,
  0xdd, 0x68, 0x14, 0x3d, 0x5a, 0xde, 0x21, 0xbe, 0xb1, 0x00, 0x9a, 0xbc,
  0xac, 0xad, 0x28, 0x3e, 0x72, 0xfe, 0x09, 0xbe, 0x5c, 0x5b, 0x06, 0x3e,
  0xda, 0xe1, 0xae, 0xbe, 0xd5, 0xda, 0x66, 0x3d, 0x55, 0x86, 0x94, 0xbc,
  0x98, 0x05, 0x6b, 0x3d, 0x14, 0x9f, 0x90, 0xbc, 0xab, 0x24, 0x82, 0x3d,
  0x94, 0x72, 0x2f, 0xbd, 0x3c, 0xfd, 0x40, 0x3e, 0x62, 0x16, 0xe1, 0x3e,
  0x06, 0x08, 0x15, 0x3b, 0x0b, 0x57, 0xb2, 0x3d, 0xe3, 0x1e, 0x9f, 0x3e,
  0xc7, 0x9a, 0x47, 0xbe, 0xb9, 0xbf, 0x9a, 0xbe, 0xc9, 0xf8, 0x83, 0x3d,
  0x18, 0x8b, 0xcb, 0xbe, 0x72, 0x17, 0xfc, 0xbe, 0x77, 0x2e, 0x30, 0xbd,
  0xaf, 0x2b, 0xc3, 0xbd, 0x2d, 0xbd, 0x0a, 0xbe, 0xf7, 0xfc, 0x43, 0xbe,
  0xd6, 0xa3, 0xbc, 0x3d, 0x3a, 0x29, 0x7a, 0x3e, 0xe0, 0x37, 0x9b, 0xbb,
  0x61, 0x26, 0x92, 0xbd, 0x75, 0x17, 0x77, 0x3e, 0x17, 0xc9, 0x1d, 0x3e,
  0xd3, 0x63, 0x48, 0xbd, 0xd0, 0xac, 0xae, 0xbe, 0xf0, 0x34, 0xa5, 0xbe,
  0x5d, 0x90, 0x51, 0x3d, 0xb0, 0x7d, 0xf9, 0x3c, 0x89, 0xa7, 0x4e, 0xbe,
  0x0a, 0x03, 0x54, 0x3c, 0xe8, 0x6c, 0xfa, 0xbc, 0x8c, 0x21, 0xe4, 0xbc,
  0x8a, 0xe2, 0x7a, 0xbe, 0x3f, 0x19, 0xdc, 0xbd, 0xa1, 0x71, 0xba, 0xbc,
  0xc3, 0xa5, 0xb6, 0xbd, 0xfc, 0xeb, 0x6d, 0x3d, 0xaa, 0x4e, 0x47, 0x3e,
  0xfa, 0x78, 0x0e, 0xbd, 0x9e, 0x8b, 0x7c, 0xbe, 0x6f, 0xfe, 0x91, 0xbe,
  0x13, 0xeb, 0x21, 0x3e, 0xb7, 0xaa, 0xcd, 0xbd, 0xeb, 0xdc, 0x54, 0x3e,
  0xb0, 0x43, 0x62, 0x3c, 0x8a, 0x6c, 0x1e, 0xbe, 0x7e, 0xa2, 0xd4, 0xbd,
  0xf9, 0x71, 0x06, 0xbe, 0x72, 0x6d, 0x10, 0xbe, 0x6c, 0x7c, 0xe1, 0x3d,
  0x34, 0xa8, 0x9e, 0xbe, 0x67, 0x86, 0xce, 0x3c, 0x4a, 0xd7, 0x05, 0x3f,
  0xc6, 0x1e, 0x66, 0xbe, 0xb2, 0xec, 0x10, 0x3e, 0xb6, 0x37, 0x94, 0x3d,
  0x9f, 0xe6, 0xfd, 0xbd, 0xf8, 0xe8, 0xf1, 0xbd, 0xf7, 0xc5, 0x58, 0x3e,
  0x1f, 0x7f, 0xe3, 0xbd, 0x4f, 0xf8, 0x14, 0xbc, 0x98, 0xbb, 0x83, 0xbe,
  0x6d, 0x15, 0x99, 0x3d, 0xed, 0x00, 0x3c, 0x3d, 0x2e, 0x0b, 0xfc, 0xbc,
  0xa8, 0xa6, 0x79, 0x3e, 0xf8, 0x81, 0xbc, 0x3d, 0x47, 0xc6, 0x50, 0x3e,
  0x89, 0x63, 0x10, 0xbd, 0x97, 0x76, 0x15, 0xbe, 0x6a, 0x42, 0x27, 0xbd,
  0x4a, 0x15, 0x42, 0x3e, 0x5c, 0x4b, 0x1b, 0x3f, 0x01, 0xe6, 0x98, 0x3e,
  0x19, 0xd0, 0xc7, 0x3d, 0xd4, 0xc4, 0xbf, 0xbd, 0x4e, 0x89, 0x97, 0xbc,
  0x3e, 0x73, 0xa8, 0x3e, 0x24, 0xe6, 0xb9, 0xbe, 0x65, 0xea, 0xa9, 0xbd,
  0x84, 0xd9, 0x53, 0xbe, 0x1c, 0x29, 0xa4, 0x3d, 0x85, 0x25, 0xc8, 0xbd,
  0x16, 0xb4, 0x0c, 0xbf, 0x42, 0x74, 0xb6, 0xbb, 0xfd, 0xeb, 0x70, 0xbe,
  0xda, 0x6f, 0xdd, 0xbe, 0x46, 0x0e, 0xc0, 0xbd, 0x38, 0x3a, 0x57, 0xbe,
  0x15, 0xdc, 0x53, 0x3e, 0x0f, 0xb4, 0x84, 0xbe, 0xb6, 0xd2, 0xd4, 0xbd,
  0x7c, 0x52, 0x88, 0xbe, 0x8d, 0x02, 0x98, 0xbe, 0x26, 0x9e, 0x10, 0xbe,
  0x77, 0xff, 0x83, 0x3d, 0x0d, 0x4d, 0x77, 0xbe, 0x6b, 0xf4, 0xe6, 0x3d,
  0x8f, 0x9d, 0xa1, 0xbe, 0xd7, 0x0f, 0x95, 0x3e, 0xf0, 0x98, 0x9d, 0xbe,
  0x3c, 0x6b, 0xdb, 0xbe, 0x19, 0x95, 0xa8, 0x3e, 0x32, 0x43, 0x46, 0x3e,
  0xb6, 0x82, 0x04, 0xbf, 0xc7, 0xc8, 0x88, 0x3c, 0xc5, 0xa2, 0xff, 0xbe,
  0x8a, 0x43, 0xf6, 0xbe, 0x39, 0x1a, 0xab, 0xbe, 0x41, 0xce, 0xe7, 0x3d,
  0x1a, 0x3e, 0xdd, 0x3c, 0xf5, 0x11, 0xa9, 0x3e, 0xed, 0x6d, 0x85, 0xbe,
  0x5d, 0xbc, 0x2e, 0x3f, 0x3b, 0x28, 0x60, 0xbf, 0x9a, 0xe9, 0x99, 0xbe,
  0xbd, 0x11, 0x9a, 0x3d, 0x45, 0x22, 0x81, 0xbd, 0x0d, 0x6c, 0x0f, 0xbe,
  0x3b, 0xfb, 0xa7, 0xbd, 0xc1, 0xf0, 0x51, 0xbd, 0xc1, 0x70, 0x13, 0xbf,
  0xde, 0x49, 0x9f, 0x3d, 0xfd, 0x17, 0x89, 0x3d, 0xa1, 0xc0, 0x67, 0x3e,
  0xd8, 0x8b, 0x96, 0xbe, 0xfc, 0x8e, 0x8a, 0x3d, 0xd2, 0x24, 0x62, 0xbe,
  0x07, 0x03, 0x7c, 0xbd, 0x9f, 0x5e, 0x21, 0xbe, 0xaf, 0x1c, 0x8c, 0x3e,
  0x57, 0x68, 0x96, 0x3e, 0x03, 0xa9, 0x2c, 0x3e, 0x08, 0x10, 0x9c, 0xbe,
  0x6d, 0xd8, 0xdc, 0x3b, 0xd3, 0xcd, 0xf5, 0xbd, 0xf2, 0x61, 0xe1, 0xbe,
  0x66, 0x0f, 0x09, 0xbe, 0xf9, 0x01, 0x28, 0xbe, 0x06, 0x88, 0x27, 0x3e,
  0x3f, 0xc7, 0xa1, 0xbe, 0x45, 0x96, 0xb5, 0xbd, 0xca, 0x58, 0x09, 0xbd,
  0x25, 0x6b, 0xb4, 0x3d, 0xd7, 0x86, 0x1f, 0xbe, 0x19, 0x98, 0x53, 0xbe,
  0x6f, 0x86, 0x16, 0x3e, 0x0c, 0x36, 0x2c, 0xbd, 0xc6, 0x83, 0x42, 0xbe,
  0x20, 0xb5, 0x54, 0xbe, 0x53, 0x36, 0x5d, 0xbe, 0xf6, 0x8d, 0xe8, 0xbd,
  0x3a, 0x41, 0x5d, 0x3d, 0x6d, 0x27, 0x75, 0xbe, 0x05, 0x71, 0x01, 0xbe,
  0x43, 0x05, 0xaa, 0x3c, 0x65, 0xff, 0x25, 0xbe, 0x8e, 0x8c, 0xb7, 0xbe,
  0xe6, 0x50, 0x37, 0xbe, 0x7b, 0xe3, 0xba, 0x3d, 0x23, 0x3e, 0x44, 0x3d,
  0x0c, 0x3d, 0x78, 0xbe, 0x35, 0x5e, 0xdf, 0xbd, 0x41, 0xab, 0xaa, 0x3d,
  0xf4, 0xad, 0x5c, 0xbe, 0x90, 0xff, 0xa1, 0xbd, 0xc2, 0x93, 0x96, 0xbe,
  0xbf, 0x8a, 0xb8, 0x3d, 0x26, 0xde, 0xff, 0xff, 0x10, 0x00, 0x00, 0x00,
  0x0a, 0x00, 0x00, 0x00, 0x1c, 0x00, 0x00, 0x00, 0x38, 0x00, 0x00, 0x00,
  0x04, 0x00, 0x00, 0x00, 0x10, 0x00, 0x00, 0x00, 0x04, 0x00, 0x00, 0x00,
  0x01, 0x00, 0x00, 0x00, 0x08, 0x00, 0x00, 0x00, 0x1a, 0x00, 0x00, 0x00,
  0x73, 0x65, 0x71, 0x75, 0x65, 0x6e, 0x74, 0x69, 0x61, 0x6c, 0x2f, 0x63,
  0x6f, 0x6e, 0x76, 0x32, 0x64, 0x5f, 0x31, 0x2f, 0x43, 0x6f, 0x6e, 0x76,
  0x32, 0x44, 0x00, 0x00, 0x9c, 0xdd, 0xff, 0xff, 0xa6, 0xde, 0xff, 0xff,
  0x04, 0x00, 0x00, 0x00, 0x80, 0x01, 0x00, 0x00, 0x25, 0xd6, 0xf4, 0x3d,
  0x30, 0xe3, 0x85, 0xbe, 0xbe, 0x78, 0x06, 0x3e, 0x57, 0xdd, 0xbf, 0xbd,
  0x8b, 0x4e, 0xdc, 0xbc, 0x15, 0x83, 0x38, 0x3e, 0x13, 0x04, 0x1e, 0xbe,
  0x8a, 0x6f, 0x13, 0x3d, 0x69, 0xe2, 0x81, 0x3d, 0x72, 0x85, 0x07, 0xbe,
  0x8c, 0x0b, 0x37, 0x3e, 0xcf, 0x2a, 0x33, 0xbd, 0xc0, 0x35, 0x9b, 0xbe,
  0x65, 0xde, 0x7a, 0x3a, 0xd7, 0xbf, 0xda, 0x3c, 0x03, 0xf8, 0xad, 0xbe,
  0xf1, 0x69, 0x80, 0xbe, 0xf4, 0x03, 0x52, 0xbe, 0xa5, 0xd5, 0x90, 0x3e,
  0xd4, 0xb7, 0xf1, 0x3d, 0x81, 0xd5, 0xbc, 0x3d, 0xcf, 0xde, 0x9f, 0x3e,
  0xac, 0x8a, 0x6a, 0x3e, 0x60, 0xbf, 0xbf, 0x3d, 0x04, 0x70, 0x93, 0x3d,
  0xb6, 0x92, 0xc4, 0x3d, 0x8d, 0xc5, 0xa5, 0x3e, 0x30, 0xc1, 0x91, 0xbd,
  0xe9, 0x3d, 0x1b, 0xbe, 0xc5, 0x54, 0xc3, 0xbe, 0x37, 0xc8, 0xe4, 0xbd,
  0x9b, 0x04, 0xfe, 0xbc, 0xb3, 0xd4, 0xa4, 0xbd, 0x66, 0x05, 0xcc, 0x3c,
  0x06, 0x6f, 0xba, 0xbd, 0xa8, 0xf5, 0xdf, 0x3c, 0x10, 0x34, 0x15, 0x3e,
  0xda, 0x64, 0xda, 0x3d, 0x34, 0xba, 0x82, 0x3e, 0x2a, 0x21, 0xa3, 0x3d,
  0x96, 0xde, 0x19, 0xbd, 0x4b, 0x26, 0x30, 0x3e, 0x4b, 0xf9, 0xa1, 0xbd,
  0xcb, 0x38, 0xa5, 0xbb, 0xc3, 0x51, 0x8b, 0xbe, 0xad, 0x48, 0xdf, 0x3d,
  0x9c, 0xe7, 0xc0, 0xbd, 0xfe, 0x0f, 0x84, 0xbe, 0x4f, 0xd8, 0xe3, 0x3e,
  0x5a, 0x1e, 0x0a, 0x3d, 0x10, 0x5f, 0xf2, 0xbe, 0x12, 0x41, 0xc2, 0x3d,
  0x0a, 0xa3, 0xa9, 0x3d, 0x4a, 0x0b, 0x8d, 0x3e, 0x5c, 0x3e, 0xbc, 0xbe,
  0x89, 0xb8, 0xee, 0xbd, 0xc3, 0x9a, 0x91, 0x3e, 0x9e, 0x22, 0xa2, 0xbd,
  0x7c, 0x1b, 0x2c, 0xbd, 0x24, 0x76, 0x17, 0x3d, 0xc3, 0x21, 0x51, 0xbb,
  0xae, 0x98, 0x28, 0x3e, 0xcd, 0x88, 0x35, 0xbe, 0x0e, 0x7d, 0x59, 0xbd,
  0x04, 0xd0, 0x12, 0x3e, 0xf8, 0x47, 0xf3, 0xbd, 0xa1, 0xae, 0xb9, 0xbc,
  0xc9, 0x9e, 0xb0, 0x3c, 0xf8, 0xa0, 0xe6, 0xbd, 0xfc, 0xfe, 0x62, 0x3e,
  0x21, 0x18, 0x61, 0xbe, 0x08, 0x99, 0x7d, 0x3e, 0x44, 0x64, 0x92, 0xbd,
  0x82, 0x03, 0x34, 0x3e, 0x92, 0x0c, 0x1f, 0x3e, 0x70, 0x9b, 0x31, 0x3d,
  0x58, 0xdf, 0xca, 0xbd, 0x9f, 0xc5, 0x41, 0x3e, 0xf3, 0xc4, 0x00, 0x3e,
  0xd4, 0xcc, 0x47, 0xbe, 0xc9, 0x26, 0xbe, 0xbd, 0x89, 0xfe, 0x1e, 0x3e,
  0x40, 0x3b, 0x31, 0x3e, 0xdf, 0x5c, 0xce, 0xbd, 0xe3, 0x0b, 0x8b, 0x3c,
  0x22, 0x0c, 0x43, 0xbd, 0xc7, 0x53, 0xc2, 0xbc, 0x9f, 0xde, 0x75, 0xbe,
  0x17, 0x17, 0xee, 0xbe, 0xb0, 0xc6, 0xf6, 0xbd, 0xf7, 0x8b, 0xf6, 0x3e,
  0x2f, 0x00, 0x54, 0x3e, 0x80, 0x12, 0x4c, 0xba, 0x94, 0x40, 0xdb, 0x3b,
  0x97, 0xce, 0xad, 0x3e, 0x21, 0x19, 0x4e, 0x3e, 0xfe, 0xdf, 0xff, 0xff,
  0x10, 0x00, 0x00, 0x00, 0x09, 0x00, 0x00, 0x00, 0x1c, 0x00, 0x00, 0x00,
  0x38, 0x00, 0x00, 0x00, 0x04, 0x00, 0x00, 0x00, 0x08, 0x00, 0x00, 0x00,
  0x04, 0x00, 0x00, 0x00, 0x03, 0x00, 0x00, 0x00, 0x01, 0x00, 0x00, 0x00,
  0x18, 0x00, 0x00, 0x00, 0x73, 0x65, 0x71, 0x75, 0x65, 0x6e, 0x74, 0x69,
  0x61, 0x6c, 0x2f, 0x63, 0x6f, 0x6e, 0x76, 0x32, 0x64, 0x2f, 0x43, 0x6f,
  0x6e, 0x76, 0x32, 0x44, 0x00, 0x00, 0x00, 0x00, 0x74, 0xdf, 0xff, 0xff,
  0x7e, 0xe0, 0xff, 0xff, 0x04, 0x00, 0x00, 0x00, 0xc0, 0x00, 0x00, 0x00,
  0x98, 0x78, 0xaf, 0x3c, 0xbb, 0xf6, 0x76, 0x3e, 0x7a, 0x87, 0xb0, 0x3e,
  0xfb, 0x77, 0x40, 0x3d, 0xe7, 0xd2, 0xd8, 0x3e, 0x30, 0x42, 0xbd, 0x3e,
  0x85, 0x22, 0x23, 0xbd, 0x45, 0x67, 0x9d, 0xbd, 0x21, 0x37, 0x80, 0x3e,
  0xb3, 0x52, 0xd7, 0x3e, 0x8f, 0x31, 0xbe, 0x3b, 0x05, 0x10, 0x6c, 0x3e,
  0x16, 0xaf, 0xed, 0x3e, 0x18, 0x2f, 0x67, 0x3e, 0xbb, 0xdf, 0xbb, 0xbe,
  0xe5, 0xff, 0x89, 0x3e, 0x48, 0x80, 0x9b, 0xbb, 0xbb, 0xf4, 0x09, 0xbf,
  0xf5, 0x5c, 0xe4, 0x3e, 0x92, 0xc6, 0xb0, 0xba, 0x74, 0xe9, 0xc6, 0x3e,
  0xf3, 0x09, 0x5a, 0x3e, 0x14, 0x5c, 0x71, 0xbd, 0x6a, 0x29, 0x0f, 0x3e,
  0xb2, 0xec, 0x94, 0x3e, 0x00, 0x03, 0x6e, 0xbe, 0xb5, 0xf3, 0x94, 0xbd,
  0x11, 0x46, 0x8c, 0x3e, 0xaa, 0x28, 0x78, 0xbf, 0xbd, 0xab, 0x46, 0x3e,
  0x76, 0x49, 0x81, 0xbe, 0xb4, 0x24, 0x2c, 0xbf, 0x0e, 0x21, 0x66, 0xbc,
  0xd2, 0xf2, 0xdb, 0xbe, 0xdc, 0xbc, 0xa1, 0x3e, 0xf5, 0xd9, 0x9c, 0x3d,
  0x1a, 0x0a, 0xbe, 0x3e, 0xba, 0x88, 0xba, 0x3e, 0xf4, 0x32, 0x8f, 0x3b,
  0xe0, 0x00, 0x9a, 0x3e, 0x64, 0xbe, 0x50, 0x3e, 0x46, 0x89, 0xa4, 0xbc,
  0x99, 0xb9, 0x2f, 0x3e, 0x49, 0x79, 0x55, 0x3e, 0x2f, 0x9d, 0x50, 0xbf,
  0x27, 0x18, 0x0a, 0x3e, 0xac, 0x71, 0x61, 0xbd, 0x1e, 0x3e, 0x43, 0xbf,
  0x16, 0xe1, 0xff, 0xff, 0x10, 0x00, 0x00, 0x00, 0x08, 0x00, 0x00, 0x00,
  0x14, 0x00, 0x00, 0x00, 0x30, 0x00, 0x00, 0x00, 0x02, 0x00, 0x00, 0x00,
  0x03, 0x00, 0x00, 0x00, 0x10, 0x00, 0x00, 0x00, 0x19, 0x00, 0x00, 0x00,
  0x73, 0x65, 0x71, 0x75, 0x65, 0x6e, 0x74, 0x69, 0x61, 0x6c, 0x2f, 0x64,
  0x65, 0x6e, 0x73, 0x65, 0x5f, 0x31, 0x2f, 0x4d, 0x61, 0x74, 0x4d, 0x75,
  0x6c, 0x00, 0x00, 0x00, 0x84, 0xe0, 0xff, 0xff, 0x8e, 0xe1, 0xff, 0xff,
  0x04, 0x00, 0x00, 0x00, 0x00, 0x1c, 0x00, 0x00, 0xcd, 0xe1, 0xcc, 0x3d,
  0x03, 0xa1, 0x7d, 0x3e, 0x6a, 0x0c, 0x0e, 0x3b, 0xe1, 0x2d, 0x34, 0x3e,
  0xd8, 0xfa, 0xc5, 0xbd, 0x65, 0x99, 0x5b, 0xbe, 0xdf, 0x33, 0x3a, 0xbe,
  0x28, 0xb1, 0xae, 0xbd, 0x7a, 0xde, 0xd7, 0x3d, 0xce, 0xd9, 0x12, 0xbd,
  0x8c, 0xb4, 0x4e, 0xbc, 0xd8, 0xe2, 0x81, 0xbe, 0x0c, 0xe1, 0x9c, 0xbe,
  0xcc, 0x86, 0xbb, 0x3e, 0x52, 0x8f, 0x73, 0xbe, 0x75, 0xf1, 0x9b, 0xbe,
  0xe7, 0xf5, 0x22, 0x3d, 0x17, 0xe6, 0xe8, 0xbe, 0x44, 0xb5, 0x5d, 0x3b,
  0x90, 0x7e, 0xb7, 0x3d, 0x2c, 0xba, 0x73, 0x3e, 0x98, 0x74, 0xfd, 0xbd,
  0xec, 0xda, 0x49, 0xbe, 0xe0, 0x2f, 0x29, 0xbe, 0x22, 0x2e, 0x01, 0xbe,
  0x4e, 0x57, 0xb1, 0xbd, 0x6a, 0x2a, 0x6b, 0xbe, 0xfa, 0xef, 0x8e, 0xbe,
  0xc9, 0x55, 0x3a, 0xbe, 0xd7, 0x83, 0x21, 0x3e, 0x18, 0xe0, 0xf9, 0x3d,
  0xd4, 0x16, 0xb2, 0xbd, 0xd2, 0x58, 0xf5, 0xbd, 0xff, 0xc2, 0xc1, 0x3d,
  0xf0, 0xc9, 0x5e, 0x3e, 0xfa, 0xc4, 0x41, 0xbe, 0x58, 0x3c, 0xa6, 0x3e,
  0xf2, 0x35, 0x7e, 0x3d, 0x89, 0x9e, 0x14, 0xbe, 0x40, 0x85, 0x9c, 0xbd,
  0xab, 0x50, 0xd5, 0x3e, 0x84, 0x44, 0x43, 0x3d, 0x31, 0x74, 0x36, 0x3e,
  0x44, 0x4d, 0x3a, 0xbe, 0x2a, 0x8e, 0x10, 0x3e, 0x72, 0xa6, 0x92, 0x3e,
  0xc9, 0x38, 0x7d, 0x3d, 0xbc, 0x0d, 0xc9, 0xbe, 0xd7, 0x94, 0x9e, 0xbd,
  0x27, 0x4d, 0x75, 0x3e, 0xbe, 0xee, 0x7a, 0x3e, 0xf7, 0x3c, 0xa1, 0x3e,
  0x7c, 0xcd, 0x8b, 0x3e, 0x25, 0xf9, 0x0b, 0x3e, 0x49, 0xa4, 0x5d, 0xbd,
  0xac, 0xf0, 0xa4, 0xbd, 0xf7, 0xce, 0x9a, 0x3e, 0x7e, 0x94, 0x28, 0x3e,
  0x2d, 0xc2, 0xaf, 0x3d, 0x05, 0x9c, 0xb5, 0xbd, 0x22, 0x0e, 0xf7, 0xbc,
  0x4c, 0x8f, 0x1a, 0x3e, 0x98, 0xfa, 0x88, 0x3e, 0xc1, 0xce, 0x54, 0xbe,
  0xdc, 0x08, 0x1e, 0xbc, 0xd0, 0xb5, 0x94, 0x3e, 0x4d, 0x4e, 0x82, 0x3e,
  0xe9, 0x86, 0x9f, 0x3e, 0x88, 0xaa, 0x30, 0xbd, 0x0f, 0x07, 0x1b, 0xbe,
  0xc0, 0x09, 0x6a, 0xbc, 0x09, 0x60, 0xd4, 0xbe, 0x9b, 0x70, 0x89, 0x3e,
  0xd8, 0x9f, 0x6e, 0xbd, 0xc5, 0x6b, 0x49, 0x3d, 0xeb, 0x54, 0x0e, 0x3e,
  0x5a, 0x45, 0x8f, 0xbe, 0x16, 0xee, 0x8b, 0x3e, 0xf3, 0x4c, 0xcd, 0xbe,
  0xdf, 0xb7, 0x6f, 0xbe, 0xbc, 0x6b, 0xef, 0x3c, 0x56, 0xa7, 0x95, 0x3e,
  0xe7, 0x38, 0x4a, 0x3e, 0xb7, 0x4d, 0x2f, 0x3e, 0xeb, 0x35, 0x0d, 0xbd,
  0xf2, 0xce, 0x90, 0xbe, 0xc2, 0xb7, 0xb6, 0x3e, 0xac, 0x53, 0xab, 0xbe,
  0x2e, 0x6c, 0x40, 0x3e, 0x8e, 0xc4, 0x5f, 0xbd, 0x50, 0xcf, 0x12, 0xbb,
  0xc4, 0xfc, 0xf5, 0xbd, 0x60, 0x85, 0xa8, 0xbe, 0xf7, 0x1f, 0x61, 0x3e,
  0x3c, 0x69, 0x3a, 0xbe, 0xd3, 0x9b, 0x4e, 0xbe, 0x35, 0x4f, 0x43, 0xbc,
  0xef, 0xe6, 0x0c, 0x3e, 0x9a, 0x14, 0xfd, 0xbc, 0x97, 0x71, 0x94, 0x3c,
  0xba, 0x6a, 0x17, 0x3d, 0x10, 0xd9, 0x72, 0xbe, 0x9f, 0xe2, 0x71, 0xbd,
  0xc6, 0x8b, 0x22, 0xbe, 0xf5, 0xac, 0xff, 0x3d, 0xf9, 0x09, 0x1a, 0xbd,
  0x6d, 0xdf, 0x33, 0x3d, 0xb8, 0x85, 0x01, 0xbe, 0x17, 0x56, 0x0b, 0xbe,
  0x5c, 0x86, 0x17, 0x3e, 0x97, 0x90, 0xe7, 0x3d, 0x9d, 0x30, 0xa1, 0xbe,
  0x4e, 0x5d, 0x8e, 0xbd, 0xa8, 0xcc, 0xec, 0xbb, 0x71, 0x5d, 0x2b, 0xbe,
  0xc6, 0xdc, 0xe3, 0xbd, 0xdb, 0xfe, 0x6f, 0xbe, 0x21, 0x8b, 0x5f, 0xbe,
  0x67, 0x8d, 0x2c, 0x3e, 0x2b, 0x50, 0x63, 0xbe, 0xda, 0x86, 0x52, 0xbe,
  0x36, 0x56, 0x06, 0xbe, 0x35, 0x2c, 0x88, 0xbd, 0x94, 0xc6, 0xdc, 0xbc,
  0xc5, 0xcc, 0x83, 0xbe, 0x89, 0xac, 0x92, 0x3c, 0xc1, 0x02, 0x5a, 0xbe,
  0x8c, 0x94, 0x29, 0x3f, 0x1d, 0xc2, 0x48, 0xbe, 0x6d, 0xee, 0xd1, 0xbd,
  0xc8, 0xf8, 0xa7, 0xbd, 0x81, 0xb1, 0xf5, 0x3d, 0x39, 0x6f, 0xda, 0x3d,
  0x58, 0x6d, 0xf3, 0xbc, 0xc7, 0xb5, 0xa7, 0x3e, 0x8d, 0xd4, 0x78, 0x3d,
  0xf1, 0xea, 0x07, 0xbd, 0x99, 0x4c, 0x31, 0xbe, 0x4b, 0xe4, 0xe6, 0xbd,
  0x3a, 0x7b, 0x29, 0x3e, 0x53, 0x21, 0x6c, 0xbe, 0x37, 0x3c, 0x2c, 0xba,
  0x56, 0x9c, 0x93, 0xbe, 0xfa, 0xbd, 0xfa, 0x3e, 0x68, 0x4a, 0x99, 0xbd,
  0xab, 0xf5, 0x7a, 0xbd, 0x2a, 0x5a, 0x57, 0xbe, 0x4f, 0x2c, 0x29, 0x3e,
  0xb6, 0x1e, 0x76, 0xbe, 0xcf, 0x71, 0x80, 0xbd, 0x5a, 0x47, 0xa3, 0x3e,
  0x6b, 0x16, 0x6b, 0xbe, 0xa3, 0x11, 0x5d, 0xbd, 0x99, 0xc5, 0x22, 0xbe,
  0x29, 0xf6, 0x1d, 0xbe, 0x6d, 0x2d, 0xb7, 0x3e, 0x6b, 0x79, 0x91, 0xbd,
  0xc2, 0x3e, 0x10, 0x3e, 0xaa, 0xc9, 0x51, 0xbe, 0x06, 0x55, 0xde, 0x3e,
  0x56, 0x0a, 0x5a, 0xbd, 0x3a, 0x27, 0xb3, 0xbc, 0xa1, 0x2d, 0x45, 0xbe,
  0xf6, 0x21, 0xac, 0x3d, 0x81, 0xa7, 0x21, 0x3e, 0xa3, 0x58, 0x10, 0xbe,
  0xf1, 0xdf, 0x92, 0x3e, 0xf0, 0xce, 0x44, 0xbe, 0xf9, 0x30, 0x1b, 0x3e,
  0x50, 0x8e, 0x3f, 0xbe, 0xf4, 0x26, 0x93, 0xbd, 0x44, 0xed, 0xcb, 0x3d,
  0x61, 0xb0, 0x40, 0x3d, 0xdd, 0xc6, 0xab, 0x3c, 0xa9, 0x5b, 0x89, 0xbe,
  0xe0, 0x70, 0x18, 0x3f, 0x3a, 0xb6, 0xc7, 0xbd, 0xb7, 0x33, 0x08, 0x3e,
  0x03, 0xaf, 0x4a, 0x3b, 0x23, 0xbb, 0x8c, 0x3e, 0x06, 0x33, 0x82, 0x3d,
  0x59, 0x60, 0xe8, 0x3c, 0x36, 0x6f, 0xd5, 0x3e, 0xbf, 0x2f, 0x1f, 0xbe,
  0x83, 0x5a, 0xd9, 0x3d, 0x4b, 0x10, 0x93, 0xbe, 0x35, 0x24, 0x65, 0xbc,
  0x8b, 0x98, 0xd8, 0x3d, 0x21, 0xeb, 0x3e, 0xbe, 0x21, 0x78, 0x6d, 0x3d,
  0x08, 0x4b, 0x0a, 0x3e, 0xc2, 0xdb, 0xc1, 0x3e, 0xfa, 0x39, 0xfd, 0xbd,
  0xc4, 0x6c, 0x07, 0x3e, 0x88, 0x47, 0x12, 0xbe, 0xc9, 0x0d, 0x38, 0xbe,
  0x77, 0x45, 0x53, 0xbe, 0x0c, 0x9d, 0x1b, 0x3e, 0x8a, 0x43, 0x9a, 0x3e,
  0x4c, 0xf1, 0x36, 0xbe, 0xb5, 0x00, 0x3e, 0xbe, 0xce, 0x06, 0xc0, 0xbe,
  0xac, 0x8d, 0x8f, 0xbe, 0x0b, 0xd4, 0x91, 0x3e, 0x1c, 0x54, 0x1c, 0x3e,
  0x5f, 0x48, 0xce, 0x3c, 0x0b, 0x33, 0x43, 0xbe, 0x72, 0x80, 0xda, 0x3e,
  0x96, 0x97, 0x05, 0xbe, 0x1d, 0x95, 0x37, 0xbd, 0x42, 0x9d, 0x89, 0xbd,
  0xdf, 0x38, 0xa0, 0xbe, 0x63, 0x96, 0x04, 0xbe, 0x33, 0xbd, 0xb7, 0xbd,
  0xf8, 0x44, 0xa1, 0x3e, 0xaa, 0x74, 0xa1, 0x3c, 0x0c, 0x39, 0x0f, 0x3e,
  0xec, 0xb5, 0xdf, 0xbe, 0x38, 0x13, 0x3c, 0xbb, 0x52, 0x48, 0x3b, 0xbd,
  0xe8, 0xca, 0x2c, 0xbe, 0x70, 0xbb, 0x14, 0x3d, 0x61, 0xee, 0x4f, 0xbd,
  0xb4, 0x58, 0xd8, 0x3e, 0x9c, 0xf6, 0xaf, 0xbe, 0xe7, 0x91, 0x1d, 0xbf,
  0x40, 0xc1, 0x81, 0xbe, 0xee, 0xd7, 0xbc, 0xbe, 0x82, 0x1f, 0x14, 0xbe,
  0xad, 0xda, 0xb4, 0xbe, 0xd9, 0xac, 0x30, 0xbe, 0xf4, 0x1d, 0x7b, 0xbe,
  0x58, 0xfd, 0xd0, 0xbe, 0xab, 0x4c, 0x97, 0xbe, 0x83, 0x91, 0x4f, 0xbe,
  0xce, 0x47, 0x86, 0x3d, 0xa6, 0x4e, 0x89, 0xbe, 0xb6, 0x52, 0xb3, 0xbd,
  0x14, 0x69, 0x88, 0xbc, 0xf0, 0x7b, 0x4d, 0xbc, 0x7c, 0x5e, 0xf7, 0xbe,
  0x46, 0x97, 0x84, 0xbe, 0x2e, 0x57, 0xb1, 0xbd, 0x11, 0x32, 0xb3, 0xbe,
  0x3f, 0x22, 0xd7, 0xbd, 0x19, 0xa1, 0x70, 0xbe, 0xef, 0xa8, 0x73, 0xbe,
  0x25, 0x2c, 0x42, 0xbe, 0x1e, 0x81, 0xc1, 0xbe, 0x7f, 0x4c, 0xc4, 0xbd,
  0xb3, 0x35, 0x9d, 0xbd, 0xac, 0xd4, 0x08, 0x3a, 0x0f, 0xae, 0x86, 0x3e,
  0x9b, 0x92, 0xc0, 0xbe, 0xab, 0xc2, 0x94, 0xbd, 0xee, 0x41, 0x30, 0x3d,
  0xb4, 0x2e, 0x06, 0xbf, 0x4f, 0x8b, 0x58, 0xbe, 0xfd, 0x89, 0xc1, 0xbe,
  0x30, 0x86, 0xed, 0xbe, 0x7c, 0x04, 0xbf, 0xbd, 0x92, 0x71, 0x84, 0xbd,
  0xb3, 0x38, 0xd6, 0xbe, 0xf8, 0xe8, 0xea, 0x3b, 0xcc, 0xeb, 0x8c, 0xbe,
  0x56, 0x9d, 0x3f, 0xbe, 0x5c, 0x90, 0x28, 0xbe, 0xdf, 0xa7, 0x35, 0xbe,
  0x2b, 0xbe, 0x9e, 0x3d, 0xfa, 0x32, 0xb7, 0xbd, 0xdf, 0xac, 0x67, 0xbb,
  0x21, 0xdd, 0xa5, 0x3d, 0x1d, 0x32, 0xf1, 0xbe, 0x28, 0x0f, 0xc7, 0xbe,
  0xad, 0x78, 0x3b, 0x3c, 0x7c, 0x9f, 0x35, 0xbd, 0x4b, 0x1c, 0x24, 0xbe,
  0x47, 0x15, 0x94, 0x3d, 0x2d, 0x0c, 0x0d, 0xbf, 0xb5, 0x78, 0x33, 0xbc,
  0xb9, 0xb6, 0x34, 0xbf, 0x03, 0x2f, 0x32, 0xbe, 0x57, 0x3f, 0x9a, 0xbe,
  0xe5, 0xaf, 0x41, 0xbc, 0x98, 0xc2, 0x93, 0xbe, 0xe7, 0x9e, 0x32, 0xbe,
  0x60, 0x73, 0x07, 0xbe, 0x0f, 0x6a, 0x26, 0x3d, 0x8d, 0x0e, 0x8e, 0xbe,
  0xab, 0x17, 0x13, 0xbe, 0x0a, 0xe8, 0x72, 0x3e, 0xf7, 0x63, 0xe2, 0x3d,
  0x7b, 0x43, 0x10, 0x3e, 0xe8, 0x1b, 0x89, 0x3e, 0x0c, 0x4b, 0xee, 0xbe,
  0xed, 0x6a, 0xe5, 0xbc, 0x1c, 0x8c, 0x89, 0x3d, 0xce, 0x0b, 0xc0, 0xbd,
  0xbd, 0x20, 0xce, 0x3d, 0x06, 0x6a, 0x53, 0xbc, 0x37, 0x8a, 0xca, 0xbd,
  0xc0, 0x7f, 0xa6, 0x3e, 0xfa, 0xf1, 0xde, 0x3e, 0xc4, 0xe6, 0xb8, 0x3d,
  0xa6, 0x50, 0x2a, 0xbd, 0xb8, 0x1f, 0x77, 0xbd, 0xec, 0xa3, 0xf3, 0xbc,
  0xbc, 0x03, 0x4d, 0x3b, 0x8d, 0x09, 0xaa, 0x3d, 0x6a, 0xa2, 0x7c, 0x3e,
  0xc6, 0x6c, 0x0c, 0xbf, 0xdd, 0xe6, 0x1f, 0x3e, 0x35, 0x64, 0x1c, 0xbb,
  0x70, 0x5f, 0xb1, 0x3d, 0xd7, 0x60, 0x18, 0x3e, 0x41, 0x4b, 0x2d, 0xbd,
  0xe5, 0x19, 0x1b, 0x3e, 0x68, 0x57, 0xf2, 0xbd, 0xcc, 0xba, 0xd6, 0x3d,
  0x17, 0x38, 0x75, 0xbc, 0x18, 0x6c, 0x12, 0x3e, 0xce, 0xeb, 0x39, 0x3d,
  0xd2, 0x49, 0x24, 0x3e, 0xd1, 0xc5, 0x18, 0xbe, 0xda, 0xec, 0x32, 0xbe,
  0x3a, 0xf9, 0x80, 0x3d, 0xde, 0x05, 0x2a, 0xbe, 0x70, 0x06, 0x1f, 0xbc,
  0x60, 0x8f, 0x3d, 0x3d, 0x38, 0xba, 0x79, 0x3d, 0xe1, 0xcf, 0x82, 0x3e,
  0x97, 0x95, 0x1d, 0x3e, 0xdb, 0xac, 0x24, 0x3e, 0x1f, 0x6f, 0x76, 0xbd,
  0x0a, 0x2d, 0xb5, 0x3e, 0xe4, 0x22, 0x03, 0x3d, 0x26, 0xc2, 0xd9, 0x3c,
  0x13, 0xee, 0x92, 0xbe, 0xe8, 0x97, 0xd4, 0xbe, 0x0a, 0xe1, 0xb6, 0xbe,
  0xcc, 0xca, 0x6e, 0xbe, 0xbc, 0x24, 0x4f, 0xbe, 0x04, 0x35, 0xaf, 0x3e,
  0x54, 0x78, 0x68, 0xbe, 0x30, 0x11, 0x6e, 0xbe, 0xd4, 0x6c, 0x9b, 0xbd,
  0xc7, 0xa7, 0xc7, 0x3d, 0xed, 0xde, 0x94, 0x3e, 0xb2, 0xf0, 0x8c, 0x3d,
  0x30, 0xb4, 0xf7, 0xbd, 0x01, 0x5b, 0x7b, 0xbe, 0xf8, 0x89, 0xc9, 0x3e,
  0x14, 0x3a, 0x59, 0x3d, 0x3e, 0x1d, 0x86, 0xbd, 0xcf, 0x1e, 0x85, 0xbe,
  0x4b, 0x52, 0x29, 0xbe, 0xcf, 0xb8, 0x7d, 0xbd, 0x31, 0x75, 0xff, 0x3c,
  0x64, 0xe3, 0x39, 0x3e, 0x65, 0xce, 0x57, 0x3d, 0x76, 0xc7, 0x46, 0xbd,
  0x31, 0x0c, 0xd0, 0x3d, 0xc5, 0x11, 0xa8, 0x3d, 0x22, 0x31, 0xc8, 0xbc,
  0x4d, 0x10, 0x02, 0x3e, 0xad, 0xfe, 0xf6, 0xbe, 0x21, 0x05, 0x77, 0xbc,
  0xbf, 0x89, 0xdd, 0x3d, 0x4c, 0x6d, 0x23, 0x3d, 0x08, 0xc0, 0xb9, 0xbd,
  0xb2, 0x24, 0x80, 0xbe, 0xd3, 0xbf, 0x2e, 0xbe, 0xf6, 0x3c, 0x10, 0xbc,
  0x77, 0xbe, 0x5b, 0x3c, 0xb8, 0x59, 0xfd, 0xbc, 0x1c, 0x2f, 0xb5, 0x3e,
  0x9a, 0xde, 0x32, 0xbe, 0x7f, 0xcf, 0xec, 0x3c, 0x83, 0xd8, 0x64, 0xbd,
  0x7d, 0x35, 0x89, 0x3e, 0x20, 0xdf, 0x03, 0x3c, 0xa6, 0xb0, 0x00, 0x3d,
  0xae, 0x3c, 0x8a, 0xbd, 0x05, 0xcc, 0xb0, 0x3e, 0x9c, 0x6a, 0x09, 0x3d,
  0x6d, 0x9a, 0xfd, 0x3c, 0x1f, 0x98, 0xc6, 0xbd, 0xb6, 0xd1, 0x75, 0xbd,
  0xbf, 0x7a, 0xa2, 0x3d, 0x6c, 0xcb, 0x2e, 0xbd, 0x28, 0x5c, 0x87, 0xbd,
  0x24, 0xa7, 0xb2, 0x3e, 0xfd, 0xee, 0x34, 0xbe, 0xbe, 0x55, 0xbf, 0x3d,
  0xb9, 0x26, 0x2e, 0xbe, 0xa0, 0xe6, 0x1d, 0x3e, 0xa9, 0x7f, 0x2c, 0x3e,
  0xbd, 0xb9, 0x2b, 0x3d, 0xa9, 0x3c, 0x05, 0x3e, 0x4b, 0x61, 0xbc, 0x3e,
  0xf0, 0xd5, 0x8f, 0x3d, 0x1c, 0xb7, 0x9e, 0x3d, 0x14, 0xfa, 0x9a, 0xbe,
  0xac, 0x74, 0x7d, 0xbe, 0x7f, 0xfe, 0xbe, 0x3c, 0x60, 0x15, 0x37, 0x3e,
  0xf2, 0x1b, 0xbe, 0xbd, 0xbe, 0xd2, 0x21, 0x3e, 0x95, 0xdf, 0x2c, 0xbe,
  0x06, 0x31, 0xae, 0x3d, 0xe2, 0x74, 0x85, 0xbe, 0x3f, 0x18, 0x52, 0x3d,
  0xe5, 0x20, 0xe4, 0x3d, 0x75, 0xfe, 0xbd, 0xbd, 0xf1, 0x42, 0x11, 0xbe,
  0xe4, 0x2c, 0x6c, 0xbd, 0xb3, 0x63, 0x9b, 0x3d, 0x81, 0x95, 0x81, 0xbe,
  0xd5, 0x66, 0x96, 0xbe, 0x43, 0x01, 0x82, 0xbe, 0xf3, 0x11, 0x35, 0xbe,
  0x84, 0x26, 0xdb, 0xbd, 0x10, 0x0e, 0xc7, 0xbe, 0x07, 0x3e, 0x0c, 0x3e,
  0x70, 0xd4, 0x99, 0xbe, 0xd7, 0x8c, 0x1e, 0x3c, 0x61, 0xa3, 0xb5, 0xbe,
  0xc8, 0x5c, 0x00, 0x3e, 0x0d, 0x7c, 0x31, 0xbd, 0x83, 0x6d, 0xe0, 0xbd,
  0xc3, 0xdd, 0x3a, 0xbe, 0x73, 0x0b, 0x43, 0x3d, 0x75, 0x4e, 0x11, 0x3d,
  0x47, 0xed, 0xce, 0xbd, 0x91, 0xba, 0x5f, 0x3c, 0x5a, 0x4d, 0x08, 0xbe,
  0xc6, 0xfd, 0x8d, 0xbe, 0x3a, 0x52, 0xbd, 0x3d, 0xe3, 0xc4, 0x61, 0x3e,
  0x7b, 0xb2, 0x2e, 0xbb, 0x62, 0xe1, 0xe7, 0xbe, 0x80, 0x3c, 0xa7, 0xbd,
  0x41, 0x62, 0x89, 0xbe, 0x74, 0x07, 0x96, 0x3e, 0x8a, 0x87, 0x92, 0xbc,
  0x0b, 0x55, 0xef, 0xbd, 0x3a, 0xfb, 0xbd, 0xbd, 0xde, 0x2e, 0xa0, 0x3d,
  0xe7, 0xaa, 0x6d, 0xbd, 0x62, 0xf9, 0x2e, 0x3e, 0x30, 0xe4, 0x63, 0x3e,
  0x52, 0x2f, 0x64, 0x3e, 0xe0, 0x43, 0x9d, 0xbe, 0x56, 0x62, 0xc4, 0xbe,
  0xf0, 0xb1, 0x50, 0xbd, 0x05, 0x96, 0x0d, 0xbe, 0x97, 0x07, 0x00, 0x3e,
  0xb7, 0xb0, 0x9e, 0xbd, 0xf5, 0xe0, 0x49, 0xbd, 0x02, 0x03, 0x4d, 0x3d,
  0xc6, 0xd3, 0xf7, 0xbd, 0x73, 0x07, 0xe4, 0x3d, 0x42, 0x24, 0x02, 0xbf,
  0xa9, 0xaa, 0xa2, 0xbe, 0x34, 0xca, 0x30, 0x3c, 0x29, 0xa6, 0x9e, 0x3d,
  0x51, 0x08, 0xae, 0xbc, 0xb2, 0x9d, 0x11, 0x3e, 0x4c, 0xdb, 0x81, 0x3e,
  0xa9, 0x63, 0xad, 0xbe, 0x09, 0xdf, 0x8e, 0xbe, 0x8d, 0x1a, 0xe9, 0x3b,
  0x51, 0xfe, 0x18, 0x3e, 0xed, 0x8d, 0x2a, 0xbd, 0xb5, 0x5e, 0x2a, 0x3e,
  0x31, 0x2f, 0x72, 0x3d, 0x66, 0x9b, 0x33, 0xbd, 0x9f, 0x03, 0x9a, 0x3e,
  0xa0, 0x94, 0x0c, 0xbe, 0xe8, 0xa4, 0xff, 0xbe, 0xe1, 0x97, 0x49, 0xbd,
  0x8a, 0xc1, 0x02, 0x3c, 0x87, 0x75, 0x6a, 0x3e, 0x52, 0x4d, 0x9b, 0x3d,
  0x73, 0x72, 0xe5, 0x3e, 0x3a, 0xdc, 0xcb, 0xbd, 0x5a, 0xca, 0x36, 0xbe,
  0xd2, 0x86, 0x09, 0xbe, 0x8c, 0x0b, 0x9a, 0x3e, 0xc5, 0x51, 0x7a, 0xbd,
  0x90, 0xf8, 0x55, 0x3e, 0x4d, 0x98, 0x54, 0xbe, 0x5c, 0xae, 0x57, 0x3c,
  0xa4, 0x9a, 0xb0, 0x3e, 0xb4, 0xb6, 0x30, 0x3d, 0x4b, 0x66, 0x7c, 0xbe,
  0xbc, 0x1d, 0x05, 0xbb, 0xb6, 0x42, 0x13, 0x3d, 0xab, 0x2e, 0x84, 0x3e,
  0x35, 0x8b, 0xec, 0x3d, 0xa2, 0x68, 0xbf, 0x3e, 0x40, 0x4b, 0x18, 0x3c,
  0x51, 0x90, 0x61, 0xbe, 0x20, 0x7f, 0x0f, 0xbe, 0x5c, 0x13, 0x4c, 0x3e,
  0x98, 0xe9, 0x34, 0x3d, 0xc1, 0x3c, 0x18, 0xbc, 0xda, 0xd1, 0x54, 0x3d,
  0x09, 0x49, 0xdc, 0xbd, 0x32, 0x44, 0x66, 0x3e, 0x4e, 0x3e, 0x85, 0xbd,
  0xde, 0xdc, 0x22, 0xbe, 0xb8, 0x60, 0x2e, 0xbd, 0xad, 0x15, 0xb9, 0x3e,
  0xc7, 0x34, 0xc9, 0x3e, 0x5e, 0x91, 0x27, 0x3e, 0x02, 0xa3, 0xb5, 0x3d,
  0xbb, 0x66, 0xb6, 0xbd, 0x4a, 0x04, 0x82, 0xbd, 0x38, 0xdb, 0x80, 0xbe,
  0xf1, 0x23, 0x72, 0x3e, 0x93, 0x29, 0x95, 0xbd, 0x5c, 0xd1, 0x31, 0xbe,
  0x78, 0xc5, 0x3d, 0x3a, 0xaf, 0x28, 0x70, 0xbe, 0xb8, 0x7a, 0xc0, 0x3e,
  0x7f, 0x24, 0xc2, 0xbe, 0xc9, 0x4b, 0x6b, 0xbe, 0x61, 0x69, 0x03, 0xbd,
  0xb6, 0x8e, 0xf8, 0x3e, 0x75, 0xb9, 0x56, 0x3e, 0xfe, 0x4a, 0x9b, 0x3e,
  0x1f, 0x68, 0xd9, 0xbd, 0x41, 0x23, 0x06, 0xbf, 0xfd, 0xf2, 0x02, 0x3f,
  0x20, 0x02, 0xb9, 0xbe, 0x80, 0xf6, 0x26, 0x3e, 0x99, 0x42, 0x82, 0x3b,
  0x78, 0x8b, 0x2a, 0x3e, 0x8e, 0xf9, 0xcc, 0xbd, 0x3a, 0xbf, 0x52, 0xbe,
  0x5b, 0x63, 0xef, 0x3d, 0xd8, 0x2e, 0xe9, 0xbe, 0x42, 0x6d, 0xa4, 0xbd,
  0xb1, 0x6c, 0x38, 0x3d, 0xc7, 0x3f, 0x83, 0x3e, 0xc2, 0xa4, 0xf2, 0x3c,
  0xc0, 0x39, 0x28, 0xbb, 0x55, 0xc7, 0xe9, 0xbd, 0xc7, 0x8d, 0xe0, 0xbe,
  0xf8, 0x32, 0x33, 0x3e, 0xb0, 0xb7, 0xdc, 0xbd, 0xb0, 0x06, 0x2c, 0x3e,
  0x64, 0xeb, 0x1d, 0x3e, 0x6d, 0x35, 0x4c, 0x3e, 0xe4, 0x45, 0xa5, 0xbd,
  0x23, 0x40, 0x28, 0xbe, 0x4c, 0xb4, 0x2a, 0x3e, 0xa1, 0x73, 0xc7, 0xbe,
  0xb9, 0x33, 0x22, 0xbe, 0xd0, 0xbf, 0x92, 0xbc, 0x21, 0x88, 0x47, 0x3d,
  0xe6, 0xc7, 0x00, 0xbe, 0x83, 0x15, 0x78, 0x3e, 0xa8, 0xd4, 0x2d, 0xbe,
  0x6b, 0x99, 0x05, 0xbe, 0x31, 0x03, 0x93, 0x3e, 0xc0, 0x3e, 0xfc, 0xbd,
  0x84, 0xa6, 0x89, 0xbd, 0xf2, 0x60, 0x54, 0xbd, 0x9d, 0x2b, 0x23, 0x3d,
  0xed, 0x5c, 0x79, 0x3d, 0x8a, 0xf7, 0x0f, 0xbd, 0x3c, 0x2b, 0xf6, 0x3d,
  0x61, 0xd1, 0x81, 0xbe, 0xa2, 0xe2, 0x49, 0x3e, 0x2f, 0x64, 0x9b, 0x3c,
  0x20, 0xe3, 0x8f, 0xbc, 0xd4, 0x77, 0x16, 0xbe, 0x22, 0x06, 0x1f, 0xbc,
  0x86, 0xac, 0xe3, 0x3d, 0x66, 0xc5, 0x56, 0xbe, 0x71, 0xdf, 0xa7, 0x3d,
  0xb3, 0xbc, 0xd0, 0x3d, 0x13, 0xb7, 0xc4, 0x3d, 0x61, 0x7e, 0x62, 0x3d,
  0xd9, 0xa6, 0x5c, 0x3d, 0x78, 0x4e, 0x87, 0x3d, 0xb4, 0x19, 0xfc, 0xba,
  0x0f, 0x00, 0xb3, 0x3d, 0x2f, 0x30, 0xc0, 0xbd, 0x9e, 0x74, 0x02, 0xbd,
  0x57, 0x39, 0x55, 0x3d, 0x7e, 0x21, 0xc5, 0x3e, 0x57, 0xc6, 0x96, 0x3d,
  0x8b, 0x7d, 0x80, 0x3d, 0x41, 0x2e, 0xb3, 0x3e, 0x44, 0xec, 0x4c, 0x3d,
  0x78, 0xad, 0x67, 0xbe, 0xea, 0xe2, 0x65, 0x3d, 0xd9, 0x00, 0xae, 0x3e,
  0x22, 0xff, 0x5a, 0x3d, 0xdf, 0x52, 0x99, 0x3d, 0xe6, 0x1e, 0x88, 0x3d,
  0x90, 0x29, 0xd7, 0x3d, 0x63, 0x3d, 0x8a, 0xbb, 0x7a, 0xb3, 0x0b, 0xbd,
  0x38, 0xc1, 0xb1, 0xbd, 0x37, 0x53, 0x58, 0x3d, 0x66, 0xe7, 0x6f, 0x3e,
  0x1a, 0xfe, 0x37, 0x3e, 0x1e, 0x39, 0xe0, 0x3d, 0x07, 0xfd, 0x4d, 0x3e,
  0x30, 0x4b, 0xd7, 0x3d, 0x1f, 0x3b, 0xd2, 0xbd, 0x8b, 0xf5, 0x1d, 0x3e,
  0xd7, 0x6b, 0xa1, 0x3e, 0xec, 0xf7, 0x67, 0x3d, 0xb6, 0xd5, 0x8b, 0x3d,
  0x1d, 0x61, 0xce, 0x3d, 0x39, 0x2b, 0x55, 0xbd, 0x8b, 0x13, 0xcc, 0x3e,
  0x53, 0xa2, 0x8f, 0xbb, 0x04, 0xef, 0x9a, 0x3e, 0xa5, 0x2a, 0x23, 0x3d,
  0x29, 0xb0, 0x4f, 0xbd, 0x74, 0x0f, 0xc9, 0x3d, 0x73, 0xf8, 0x3a, 0x3e,
  0xbd, 0x38, 0x58, 0xbe, 0xee, 0xc4, 0x0d, 0xbe, 0x07, 0x4b, 0xb3, 0x3d,
  0x4f, 0x42, 0x79, 0x3d, 0xa1, 0x46, 0x87, 0x3d, 0x76, 0x68, 0x1a, 0x3d,
  0xaa, 0xbc, 0x14, 0xbe, 0x7b, 0xdc, 0xba, 0x3d, 0xc3, 0x36, 0x48, 0x3c,
  0x6c, 0xf0, 0xcf, 0x3e, 0x5c, 0xb6, 0x87, 0xbe, 0xc5, 0x08, 0xbd, 0x3d,
  0xaf, 0x8e, 0xf0, 0x3b, 0x6a, 0x96, 0x78, 0x3e, 0x46, 0x0e, 0xa4, 0xbd,
  0x28, 0xb5, 0x81, 0x3d, 0xfb, 0x3b, 0xd8, 0xbd, 0xef, 0x6b, 0x4b, 0xbe,
  0xa1, 0xcd, 0xb5, 0x3e, 0x2b, 0xdd, 0xfa, 0xbc, 0x45, 0x90, 0xeb, 0xbb,
  0xbe, 0xfe, 0x00, 0x3d, 0x17, 0xdd, 0x57, 0xbd, 0xc1, 0x2b, 0x13, 0x3e,
  0xfd, 0x8d, 0x5b, 0xbd, 0xd9, 0x43, 0x5c, 0x3e, 0x79, 0xf4, 0x43, 0xbe,
  0xcd, 0x13, 0xf1, 0x3d, 0xba, 0x8f, 0xa9, 0x3c, 0xfd, 0xa4, 0xa2, 0x3d,
  0x67, 0x1d, 0x06, 0xbd, 0x37, 0x9f, 0x5c, 0xbc, 0xd4, 0x17, 0x0d, 0xbe,
  0x58, 0x15, 0xd6, 0xbd, 0xfe, 0x0c, 0x51, 0x3e, 0xd5, 0x47, 0xb1, 0xbc,
  0x7f, 0x4c, 0x29, 0x3c, 0xad, 0x40, 0x96, 0x3c, 0x87, 0xfb, 0x03, 0xbe,
  0x52, 0x8c, 0x84, 0x3d, 0xfb, 0x2f, 0x8c, 0xbd, 0x2d, 0xbd, 0x37, 0xbb,
  0x6c, 0x4f, 0x02, 0xbe, 0x2e, 0x01, 0x34, 0x3b, 0x98, 0x04, 0x16, 0xbd,
  0x03, 0x3e, 0x9b, 0xbe, 0x8a, 0xe4, 0xf7, 0xbe, 0x59, 0xd0, 0x49, 0xbf,
  0x88, 0xf4, 0x69, 0xbe, 0xf4, 0xc1, 0x5e, 0xbe, 0x77, 0x7e, 0xab, 0x3e,
  0x1f, 0xf0, 0x94, 0xbe, 0x6c, 0xc2, 0x69, 0xbe, 0x1c, 0xe5, 0x0a, 0xbe,
  0xab, 0xb6, 0xbd, 0x3d, 0x54, 0x8c, 0x4b, 0x3e, 0x92, 0xf4, 0xb5, 0x3d,
  0x38, 0xb0, 0x8f, 0xbe, 0x96, 0x87, 0x8e, 0xbe, 0xb2, 0x3b, 0xbd, 0x3e,
  0x43, 0xf7, 0xda, 0x3d, 0xce, 0x08, 0x9a, 0x3d, 0x47, 0x00, 0xec, 0xbe,
  0xc3, 0xee, 0x8f, 0xbe, 0x39, 0x9f, 0x3f, 0xbe, 0x12, 0xcf, 0x26, 0x3e,
  0x77, 0x51, 0x81, 0x3d, 0x97, 0xf0, 0x4d, 0x3e, 0x65, 0x92, 0xe4, 0xbd,
  0x82, 0xe3, 0xc6, 0x3d, 0xc1, 0x57, 0x1a, 0x3e, 0x71, 0x32, 0xb8, 0x3e,
  0x6a, 0x78, 0x44, 0x3e, 0x92, 0xe5, 0x68, 0xbf, 0x36, 0xd0, 0x01, 0x3e,
  0x39, 0xbc, 0xe8, 0x3e, 0x88, 0x0d, 0xe9, 0x3d, 0x49, 0x69, 0x00, 0xbe,
  0xc4, 0x11, 0xa5, 0xbd, 0xbb, 0xab, 0x33, 0xbd, 0x2b, 0x7e, 0x71, 0x3e,
  0x5b, 0x2d, 0x59, 0x3e, 0x64, 0x69, 0x90, 0xbd, 0xf0, 0x2e, 0xe8, 0x3e,
  0xc0, 0x98, 0x07, 0xbe, 0x89, 0x4b, 0xe7, 0x3d, 0x27, 0x22, 0x8a, 0xbc,
  0x71, 0xa9, 0xdb, 0x3d, 0xe9, 0x61, 0xd9, 0x3d, 0xa2, 0xdf, 0x9b, 0xbe,
  0x31, 0xdf, 0xb6, 0x3e, 0x98, 0x95, 0xf0, 0x3e, 0x88, 0x20, 0x68, 0x3d,
  0xf9, 0x21, 0x86, 0xbd, 0x77, 0x21, 0x25, 0xbd, 0x84, 0xfe, 0x6d, 0xbe,
  0xea, 0xa8, 0x10, 0x3e, 0x54, 0x50, 0xc6, 0x3e, 0x93, 0xc7, 0x75, 0xbd,
  0xc4, 0x79, 0xac, 0x3e, 0x6a, 0x81, 0x7a, 0xbd, 0x71, 0xb1, 0x61, 0x3d,
  0x4c, 0x00, 0xb7, 0x3c, 0x79, 0x19, 0xb2, 0x3d, 0xc8, 0xbe, 0x80, 0xbd,
  0x87, 0xe9, 0x03, 0xbf, 0xce, 0xa2, 0x3e, 0xbd, 0x3a, 0x64, 0xf6, 0x3e,
  0x2d, 0x78, 0x28, 0x3d, 0xd9, 0xc2, 0x2a, 0xbe, 0xa0, 0x29, 0xe5, 0xbe,
  0x22, 0xcc, 0xa1, 0xbe, 0x52, 0xbb, 0x7c, 0xbe, 0xe1, 0x67, 0x7f, 0xbd,
  0x28, 0xfa, 0xa5, 0xbc, 0x63, 0xc7, 0x48, 0x3e, 0xee, 0xaa, 0x13, 0xbe,
  0x89, 0x65, 0x98, 0x3d, 0x80, 0xda, 0xab, 0xbd, 0x9c, 0x60, 0x69, 0xbd,
  0xa9, 0x77, 0x2c, 0x3d, 0x77, 0x66, 0x23, 0xbf, 0xf3, 0xca, 0x9f, 0xbd,
  0xf3, 0xdf, 0xbb, 0x3e, 0xec, 0x4d, 0xac, 0x3c, 0x19, 0x67, 0x10, 0xbf,
  0x6e, 0xc7, 0xc8, 0xbe, 0xee, 0xff, 0xa0, 0xbe, 0x0a, 0x7f, 0x6d, 0xbe,
  0x53, 0xa1, 0xdf, 0xbd, 0x57, 0x20, 0xb7, 0xbe, 0xb0, 0x03, 0xfa, 0x3d,
  0xd0, 0x04, 0x18, 0xbf, 0xee, 0x47, 0x07, 0x3d, 0x3e, 0x45, 0x99, 0xbe,
  0x3d, 0xd7, 0x4d, 0x3e, 0xf8, 0x2c, 0x5f, 0x3c, 0xb6, 0x26, 0xbd, 0xbe,
  0x51, 0xe9, 0x79, 0xbe, 0xc5, 0x39, 0x88, 0x3e, 0x84, 0x12, 0x7c, 0xbc,
  0x8b, 0xeb, 0x53, 0xbe, 0x39, 0x9b, 0x25, 0xbc, 0xa2, 0x35, 0xf3, 0xbc,
  0x6f, 0xd7, 0x4f, 0xbe, 0x40, 0x48, 0xa7, 0x3c, 0xeb, 0x23, 0x4f, 0x3e,
  0x45, 0xed, 0x80, 0x3d, 0xe6, 0x3f, 0x00, 0xbf, 0xa4, 0xe5, 0x01, 0xbd,
  0xb5, 0x00, 0x73, 0xbe, 0x40, 0xb9, 0x25, 0x3e, 0x35, 0xe2, 0xa2, 0xbd,
  0x95, 0xbb, 0x04, 0xbe, 0xe0, 0x27, 0x2b, 0xbe, 0x3b, 0x68, 0xa9, 0x3d,
  0x59, 0x9a, 0x45, 0xbd, 0x6f, 0x51, 0x39, 0xbe, 0xfa, 0x8a, 0x82, 0xbd,
  0xa7, 0x47, 0x06, 0xbe, 0x89, 0x67, 0xed, 0xbd, 0x71, 0x4a, 0x61, 0xbe,
  0x96, 0x8d, 0x5a, 0xbe, 0x39, 0x97, 0x34, 0x3d, 0x5d, 0x4d, 0x06, 0xbe,
  0x0b, 0x17, 0x76, 0xbe, 0x40, 0xcd, 0xa4, 0xbe, 0x83, 0xee, 0x0d, 0xbd,
  0x59, 0x6d, 0xd5, 0xbd, 0x52, 0x8e, 0x0c, 0x3e, 0xd7, 0x3b, 0x4a, 0xbe,
  0x4d, 0x26, 0xe2, 0xbd, 0x21, 0x58, 0x69, 0xbe, 0xde, 0x9d, 0x49, 0x3e,
  0x0c, 0x72, 0x1c, 0x3e, 0x87, 0x68, 0x1e, 0x3e, 0xbd, 0x8b, 0x13, 0x3d,
  0x26, 0xd4, 0x2e, 0xbe, 0x93, 0xe8, 0xf8, 0x3b, 0x17, 0x20, 0x7c, 0xbe,
  0x73, 0xd9, 0x06, 0xbe, 0x64, 0xfa, 0x17, 0xbe, 0x38, 0x1e, 0x82, 0xbe,
  0xcf, 0x11, 0x20, 0xbe, 0xac, 0x28, 0xbc, 0x3d, 0x61, 0x27, 0x33, 0xbe,
  0x7f, 0xbc, 0x3c, 0xbe, 0x8a, 0x45, 0xfd, 0xbd, 0x11, 0x39, 0x28, 0x3d,
  0xd6, 0xf5, 0x17, 0xbe, 0x1a, 0xe7, 0x19, 0x3e, 0xb9, 0x59, 0x98, 0xbc,
  0x12, 0x6b, 0x2a, 0xbd, 0xf2, 0x56, 0x84, 0xbd, 0x34, 0x08, 0x35, 0xbe,
  0x3b, 0x3f, 0x2e, 0x3e, 0x70, 0xf4, 0x2b, 0xbd, 0xc2, 0x27, 0xe2, 0xbd,
  0xc0, 0xdb, 0x93, 0xbe, 0xb8, 0x38, 0x15, 0x3e, 0x00, 0xea, 0x44, 0x3e,
  0x72, 0x5e, 0x94, 0x3d, 0x54, 0x0c, 0xe9, 0xbd, 0x64, 0x6a, 0x1c, 0x3e,
  0xd4, 0x3a, 0x86, 0xbe, 0x0d, 0x67, 0xab, 0xbd, 0x52, 0x8b, 0x9d, 0xbb,
  0xfb, 0x0a, 0x80, 0xbd, 0xff, 0x43, 0xe4, 0x3d, 0xf4, 0x3c, 0x90, 0xbd,
  0x72, 0x98, 0xb7, 0xbd, 0x19, 0xa5, 0x22, 0x3d, 0x1b, 0x9e, 0x24, 0x3e,
  0x26, 0x89, 0x86, 0xbe, 0x9b, 0x04, 0x21, 0xbe, 0x01, 0x9a, 0x2f, 0x3e,
  0x9b, 0x8b, 0x9f, 0xbd, 0xbc, 0x3d, 0x3b, 0x3e, 0xe7, 0x30, 0xb7, 0xbc,
  0x7a, 0xa8, 0x21, 0xbe, 0x66, 0x8f, 0x57, 0xbe, 0xf1, 0xd4, 0x2a, 0x3e,
  0x69, 0xc5, 0x07, 0xbe, 0xd5, 0x36, 0xe8, 0xbc, 0x32, 0x9d, 0x9e, 0xbc,
  0x16, 0x07, 0x3b, 0x3e, 0x4d, 0xb8, 0x1c, 0xbe, 0x4b, 0x0e, 0xb2, 0x3d,
  0x98, 0x3c, 0x8f, 0xbd, 0x5c, 0x41, 0xa9, 0xbd, 0x47, 0xb7, 0x79, 0xbe,
  0x8a, 0x37, 0x16, 0xbc, 0x65, 0x63, 0x84, 0x3d, 0x60, 0x4a, 0x05, 0xbe,
  0xa4, 0x05, 0x4c, 0xbe, 0x94, 0xea, 0x42, 0xbe, 0x67, 0xd2, 0x4f, 0xbe,
  0x33, 0x11, 0x06, 0x3d, 0xd1, 0xbb, 0xed, 0x3c, 0xe9, 0x48, 0x22, 0x3e,
  0xd3, 0xdd, 0x24, 0x3d, 0x17, 0x8b, 0xdc, 0x3d, 0x2d, 0x4e, 0x99, 0x3d,
  0x4d, 0x6a, 0xfe, 0x3d, 0x9c, 0x6f, 0x29, 0xbe, 0x42, 0x61, 0x8e, 0xbe,
  0x80, 0x42, 0x21, 0xbe, 0xf7, 0x49, 0x29, 0x3e, 0x7b, 0xdb, 0xae, 0xbd,
  0x1b, 0x18, 0xd8, 0xbd, 0x78, 0x37, 0x8d, 0xbd, 0x39, 0x03, 0x90, 0xbd,
  0x14, 0xa1, 0x8c, 0x3c, 0xc1, 0x7d, 0x11, 0xbd, 0x92, 0x7e, 0x2b, 0x3d,
  0x49, 0xe1, 0x69, 0x3d, 0xb4, 0x9e, 0xa1, 0xbd, 0xb4, 0x97, 0xd3, 0x3c,
  0x55, 0x79, 0xc7, 0xbd, 0x39, 0x01, 0x96, 0xbe, 0xae, 0xed, 0x41, 0xbd,
  0xf2, 0xca, 0x4a, 0xbe, 0xce, 0xf1, 0xda, 0x3d, 0x9f, 0x6b, 0x17, 0xbe,
  0xc3, 0x3d, 0x6f, 0xbe, 0xf2, 0xe5, 0xfd, 0xbc, 0x96, 0x3c, 0x0c, 0x3e,
  0x33, 0xed, 0xd4, 0xbc, 0xe3, 0x82, 0xde, 0xbd, 0x0a, 0x48, 0x2d, 0xbe,
  0x83, 0xae, 0x82, 0x3d, 0xe8, 0xbd, 0x33, 0x3d, 0x6c, 0x11, 0x33, 0x3e,
  0xb7, 0x43, 0x09, 0x3e, 0x12, 0x89, 0xce, 0xbe, 0x60, 0xbf, 0x46, 0x3e,
  0xa7, 0x72, 0x72, 0x3c, 0x09, 0x97, 0x1c, 0x3e, 0x1a, 0xa7, 0x1b, 0xbc,
  0x2a, 0x68, 0xd0, 0xbd, 0x2d, 0xbf, 0x83, 0x3c, 0x68, 0xa8, 0xb2, 0xbe,
  0xb4, 0x39, 0x54, 0x3e, 0xc9, 0xcd, 0x97, 0x3c, 0x26, 0x57, 0x3c, 0xbb,
  0xf8, 0x33, 0x84, 0x3c, 0x08, 0x1c, 0x5b, 0x3e, 0x87, 0x09, 0xa6, 0x3d,
  0xf3, 0x10, 0xe4, 0x3d, 0x87, 0x23, 0x5c, 0x3e, 0x4c, 0xb2, 0x82, 0x3d,
  0xf6, 0xe2, 0x27, 0xbe, 0x95, 0x67, 0xac, 0x3d, 0x36, 0x37, 0x5f, 0xbd,
  0xf2, 0x8a, 0xa9, 0xbc, 0x4f, 0xf4, 0x5a, 0x3e, 0x18, 0x15, 0x75, 0xbd,
  0x16, 0xd9, 0x86, 0xbd, 0x75, 0x04, 0x7b, 0x3e, 0x36, 0x5e, 0x23, 0x3c,
  0xa7, 0x71, 0x45, 0x3c, 0x28, 0x5f, 0x27, 0xbd, 0x18, 0x87, 0x7c, 0x3e,
  0x7c, 0xb4, 0x8d, 0x3e, 0xbb, 0x52, 0x42, 0xbe, 0x44, 0x5d, 0xc2, 0xbd,
  0xec, 0x49, 0x8f, 0x3e, 0x39, 0x4c, 0x6e, 0xbe, 0xa6, 0x60, 0xac, 0xbe,
  0xba, 0xd1, 0x03, 0xbe, 0x32, 0x44, 0x15, 0xbe, 0xc7, 0x62, 0x16, 0x3c,
  0x41, 0x12, 0xef, 0xbe, 0xe4, 0xc0, 0x33, 0xbc, 0x89, 0x3d, 0x90, 0xbe,
  0x13, 0x37, 0xc5, 0xbc, 0x07, 0x9e, 0x87, 0xbd, 0x2a, 0xc9, 0xe5, 0x3b,
  0xed, 0xd8, 0xa6, 0xbe, 0x1d, 0x86, 0x35, 0xbe, 0xa3, 0xda, 0x0c, 0xbf,
  0x04, 0xfe, 0xd8, 0xbe, 0x29, 0xb0, 0xe0, 0x3d, 0xd3, 0x1a, 0x0e, 0xbf,
  0xd7, 0x03, 0xbc, 0xbe, 0xd2, 0x00, 0x4a, 0xbe, 0xa1, 0xcf, 0x9e, 0xbd,
  0x4d, 0x12, 0x10, 0x3e, 0xee, 0xc6, 0x6c, 0xbe, 0xd6, 0xb1, 0xbd, 0xbe,
  0x9c, 0x08, 0x60, 0xbd, 0x3d, 0x16, 0x09, 0xbd, 0xbd, 0x74, 0xa8, 0x3d,
  0x71, 0xd1, 0xac, 0x3c, 0xec, 0x95, 0xf4, 0x3d, 0x97, 0x43, 0x94, 0x3d,
  0x4d, 0x0e, 0x2f, 0xbe, 0x35, 0xd5, 0x8d, 0xbd, 0x6e, 0x45, 0x0b, 0x3e,
  0xc3, 0xd0, 0xa2, 0xbe, 0xd9, 0x57, 0x7f, 0xbe, 0x01, 0xa4, 0x12, 0xbe,
  0x0a, 0xe0, 0x5f, 0x3d, 0x5f, 0xb7, 0x37, 0x3e, 0x19, 0x45, 0x75, 0xbe,
  0x6f, 0x52, 0x8c, 0xbe, 0xd3, 0xe4, 0x13, 0x3e, 0x7f, 0xfd, 0x6d, 0x3d,
  0x42, 0x5c, 0xd5, 0x3c, 0x26, 0xe4, 0x75, 0x3d, 0x7a, 0xf7, 0xb2, 0xbd,
  0xc1, 0x82, 0x64, 0xbd, 0xb6, 0x23, 0x9a, 0x3d, 0xe2, 0x1b, 0x59, 0x3e,
  0x53, 0x1f, 0x10, 0xbe, 0x81, 0xfb, 0x5f, 0xbc, 0xa8, 0x03, 0x87, 0x3d,
  0x56, 0xd6, 0xba, 0xbd, 0xb1, 0x10, 0xcb, 0x3d, 0x74, 0xbd, 0xcc, 0xbd,
  0xed, 0x17, 0x55, 0x3d, 0x01, 0xef, 0x8f, 0xbb, 0x4f, 0x2e, 0xb1, 0x3e,
  0xe8, 0x0a, 0x4b, 0xbe, 0x9e, 0x7b, 0xa7, 0xbb, 0xd6, 0x3e, 0x43, 0xbe,
  0xb0, 0x15, 0x52, 0x3d, 0x4d, 0x80, 0x04, 0x3e, 0x2c, 0x7f, 0xf7, 0x3d,
  0xb0, 0xaf, 0x8d, 0x3d, 0xc0, 0x8f, 0xec, 0x3d, 0x94, 0xe0, 0xcc, 0xbd,
  0x57, 0x83, 0x7c, 0x3d, 0xae, 0x90, 0x06, 0x3d, 0x7f, 0x26, 0x89, 0x3e,
  0x18, 0x5a, 0x34, 0xbe, 0x78, 0x6d, 0xfb, 0xbc, 0x8e, 0xfa, 0xfd, 0xbd,
  0x28, 0xaf, 0x0c, 0x3e, 0x9a, 0x1a, 0x21, 0xbe, 0x9f, 0x97, 0xb7, 0xbe,
  0x10, 0x71, 0x55, 0x3c, 0xb4, 0x6b, 0x75, 0xbe, 0x7d, 0xaa, 0x0b, 0x3e,
  0x3d, 0x8a, 0x1e, 0xbd, 0xfb, 0x85, 0x7b, 0x3d, 0x9c, 0x77, 0x5d, 0x3e,
  0xaa, 0x20, 0x2b, 0xbe, 0xf0, 0x74, 0x2a, 0x3c, 0x10, 0xd0, 0x77, 0xbe,
  0xeb, 0xbf, 0x8a, 0xbe, 0xdf, 0x44, 0xd4, 0x3d, 0xd9, 0x8a, 0x05, 0xbe,
  0xd5, 0x42, 0xb2, 0xbd, 0x5a, 0xb1, 0x1f, 0x3d, 0x94, 0xfb, 0xe8, 0x3e,
  0xb4, 0xf8, 0xd6, 0xbd, 0x11, 0xae, 0x9e, 0xbd, 0x40, 0x53, 0x8e, 0x3d,
  0xee, 0xc9, 0xef, 0xbd, 0xd2, 0xeb, 0x04, 0x3e, 0xb6, 0x82, 0x53, 0xbe,
  0xff, 0x68, 0xd5, 0x3e, 0x5e, 0x75, 0x91, 0xbd, 0x53, 0xb4, 0x28, 0xbe,
  0x0e, 0x09, 0xa3, 0xbe, 0x56, 0x7c, 0xc8, 0xbd, 0x5d, 0x74, 0x08, 0x3e,
  0x2f, 0xfc, 0x69, 0xbe, 0xb4, 0xe7, 0x81, 0xbe, 0xa3, 0xdc, 0x8e, 0xbe,
  0x53, 0x75, 0xfe, 0x3e, 0x28, 0x8d, 0x3e, 0xbe, 0xc0, 0xca, 0x3b, 0xbe,
  0xae, 0xc6, 0x37, 0x3d, 0x00, 0xda, 0xbd, 0xbd, 0x29, 0x05, 0x6e, 0xbe,
  0xe9, 0x43, 0x83, 0xbe, 0x89, 0x24, 0xd5, 0x3e, 0x37, 0x1d, 0xb5, 0x3c,
  0x6d, 0x9a, 0x85, 0xbe, 0x3b, 0xe4, 0x44, 0xbe, 0xbf, 0x8f, 0x9d, 0xbc,
  0x38, 0x11, 0xbc, 0x3e, 0x30, 0xda, 0x71, 0xbe, 0xc7, 0xf6, 0x18, 0xbe,
  0xc5, 0x23, 0x1b, 0xbe, 0xb3, 0x0b, 0x2c, 0x3f, 0x1e, 0x9d, 0x5b, 0xbe,
  0x99, 0x06, 0x71, 0xbe, 0x89, 0x43, 0x61, 0xbe, 0x09, 0x54, 0xaa, 0xbd,
  0x93, 0xc9, 0x38, 0xbe, 0x95, 0x2d, 0x7f, 0xbb, 0x13, 0x29, 0xd5, 0x3e,
  0xe1, 0x8f, 0x52, 0xbe, 0xff, 0x15, 0x9b, 0xbc, 0xe1, 0x45, 0xd5, 0xbe,
  0x9a, 0xf6, 0x11, 0xbc, 0x8c, 0x7e, 0xd7, 0x3e, 0x4d, 0x54, 0xc4, 0x3d,
  0xc8, 0x59, 0xc1, 0xbc, 0x33, 0x58, 0xff, 0xbd, 0x66, 0x65, 0xe0, 0x3e,
  0xfe, 0xd8, 0x8e, 0xbe, 0x6f, 0x3e, 0x39, 0xbe, 0x5f, 0x4c, 0x9c, 0x3d,
  0xa4, 0x35, 0x00, 0xbe, 0xb7, 0x79, 0x7c, 0xbe, 0x1a, 0x7f, 0x14, 0xbe,
  0xb5, 0x9a, 0xf7, 0x3e, 0x58, 0x75, 0x99, 0xbd, 0x6a, 0x2b, 0xc3, 0xbc,
  0x6b, 0xb0, 0x94, 0xbe, 0x01, 0x8b, 0x3f, 0xbe, 0x02, 0x0d, 0x16, 0x3e,
  0x56, 0x93, 0x44, 0x3b, 0x10, 0x6c, 0x33, 0xbc, 0xf5, 0x15, 0xdf, 0xbd,
  0x33, 0xb5, 0xd1, 0x3e, 0xea, 0xf3, 0xc1, 0xbd, 0x13, 0xc9, 0x72, 0xbc,
  0x8d, 0x39, 0x6e, 0xbe, 0x75, 0xb0, 0x5d, 0xbd, 0x8c, 0xf0, 0x97, 0x3d,
  0x39, 0x17, 0x48, 0xbe, 0x40, 0x8d, 0x0b, 0x3f, 0x27, 0xa8, 0x43, 0xbe,
  0x2a, 0x15, 0x2a, 0xbe, 0xd5, 0x4b, 0xda, 0xbe, 0xe0, 0xd3, 0xd2, 0x3c,
  0x42, 0x9d, 0xe7, 0x3d, 0xfd, 0xcb, 0x93, 0xbe, 0xa8, 0xd8, 0xbb, 0xbd,
  0x9e, 0xdd, 0x61, 0xbe, 0x25, 0xee, 0xda, 0x3e, 0x80, 0x14, 0x4a, 0xbe,
  0x78, 0x90, 0xb0, 0xbd, 0x9e, 0x09, 0x0a, 0xbe, 0x69, 0xb9, 0x40, 0xbe,
  0x3f, 0x7e, 0xb8, 0xbc, 0xb8, 0x23, 0xd3, 0x3d, 0x67, 0x54, 0x6e, 0x3e,
  0xe6, 0x6a, 0xce, 0xbb, 0x62, 0xc0, 0x24, 0xbe, 0xb0, 0x23, 0x92, 0xbe,
  0x32, 0xd7, 0x4e, 0xbd, 0xef, 0x22, 0x3b, 0x3e, 0x22, 0x3a, 0x7f, 0x3d,
  0x48, 0x56, 0x33, 0xbe, 0x71, 0x4f, 0x7c, 0xbd, 0x9c, 0xfc, 0x18, 0x3f,
  0x97, 0xf9, 0x1b, 0xbc, 0x4a, 0x6d, 0x35, 0xbb, 0x21, 0x94, 0x9a, 0x3d,
  0xa6, 0xee, 0x34, 0xbe, 0x5b, 0x6a, 0xe7, 0x3d, 0x5c, 0x78, 0x36, 0xbe,
  0x2b, 0xa5, 0x07, 0x3c, 0x39, 0xec, 0x5b, 0xbe, 0xa6, 0x20, 0x9d, 0xbd,
  0x00, 0xb7, 0xa2, 0xbe, 0x55, 0x2d, 0x37, 0x3d, 0x7b, 0x22, 0x27, 0xbe,
  0x36, 0xfa, 0x8e, 0x3d, 0x81, 0x3c, 0x9f, 0xbd, 0xb0, 0x91, 0x3a, 0xbe,
  0x1a, 0x5e, 0xba, 0xbd, 0x48, 0xed, 0x98, 0xbe, 0xcc, 0x92, 0xbc, 0xbd,
  0xc8, 0xce, 0x5a, 0xbd, 0x8c, 0xcb, 0x17, 0xbd, 0x86, 0x05, 0x38, 0xbd,
  0xba, 0xcf, 0xb9, 0x3d, 0x4a, 0x6a, 0x5f, 0xbe, 0xaf, 0xba, 0x8b, 0x3b,
  0x6f, 0xe7, 0x17, 0xbe, 0xbc, 0xbd, 0x6c, 0xbe, 0x78, 0xd7, 0x7b, 0xbe,
  0xb5, 0x10, 0x69, 0xbe, 0x14, 0xec, 0xb6, 0x3c, 0x2b, 0x23, 0x65, 0xbd,
  0x2d, 0x90, 0xbd, 0x3d, 0x1b, 0xe7, 0x1e, 0xbd, 0x3d, 0x03, 0xfc, 0x3d,
  0xd2, 0x8c, 0xe8, 0xbd, 0x49, 0x40, 0x11, 0xbd, 0x50, 0xaf, 0x44, 0x3c,
  0xb3, 0xf8, 0x02, 0xbe, 0x5f, 0x64, 0xc8, 0x3d, 0x17, 0x8e, 0x3a, 0xbd,
  0x4d, 0xac, 0xb3, 0x3d, 0x80, 0xcc, 0x6e, 0xbd, 0x91, 0xe3, 0x3b, 0xbe,
  0x38, 0xea, 0x4a, 0xbe, 0x07, 0x5c, 0xed, 0x3d, 0xa6, 0x45, 0x38, 0xbd,
  0x12, 0x3e, 0x47, 0xbe, 0xbb, 0xe8, 0x0b, 0xbe, 0x9f, 0x0a, 0x93, 0xbb,
  0xbf, 0x7b, 0xaf, 0xbe, 0x45, 0x7e, 0x3a, 0x3d, 0x7a, 0x95, 0x34, 0xbe,
  0x8e, 0x8a, 0xaa, 0xbd, 0xca, 0xd9, 0x5a, 0x3d, 0x66, 0x7f, 0xce, 0x3d,
  0x16, 0x3c, 0x98, 0x3c, 0x23, 0xb9, 0xb6, 0x3d, 0x2e, 0xdf, 0x5c, 0x3c,
  0xb8, 0xfb, 0x9a, 0xbe, 0xe9, 0xe9, 0x1a, 0xbe, 0x33, 0x27, 0x02, 0xbe,
  0x28, 0x72, 0x1d, 0x3e, 0xc7, 0x9e, 0xfb, 0xbd, 0xfe, 0x05, 0x7e, 0x3c,
  0x03, 0xf5, 0x68, 0xbd, 0x9e, 0x99, 0xaf, 0xbb, 0x57, 0x9d, 0x2b, 0x3d,
  0x3d, 0xf3, 0xbc, 0x3d, 0xfd, 0x03, 0xad, 0x3c, 0xa4, 0x98, 0x62, 0xbe,
  0x9b, 0xe8, 0x2c, 0x3e, 0xe8, 0x7d, 0x0c, 0xbe, 0xfe, 0xc9, 0x17, 0xbe,
  0x25, 0xd8, 0x3a, 0xbd, 0x47, 0x3a, 0xd1, 0xbe, 0x00, 0xe1, 0xa6, 0xbd,
  0xb2, 0x85, 0x81, 0xbe, 0x94, 0xee, 0x12, 0xbe, 0x16, 0x5a, 0x24, 0xbb,
  0xd1, 0x03, 0xf9, 0xbd, 0x30, 0x3d, 0xd0, 0x3d, 0x8c, 0x54, 0x11, 0xbd,
  0x85, 0x9d, 0x42, 0x3d, 0x1b, 0xde, 0xcf, 0xbc, 0x0e, 0x82, 0x24, 0xbe,
  0x35, 0xa6, 0x26, 0xbe, 0xac, 0xa9, 0xca, 0x3c, 0xf0, 0x99, 0xc5, 0xbb,
  0xac, 0x66, 0x51, 0x3d, 0x71, 0xf5, 0xde, 0xbd, 0x2d, 0xc4, 0xe7, 0xbd,
  0x4e, 0x78, 0x1f, 0xbb, 0x86, 0x1c, 0x25, 0x3d, 0x92, 0x24, 0x51, 0xbd,
  0x36, 0xf7, 0x0a, 0xbe, 0x74, 0x49, 0x88, 0x3d, 0x50, 0x02, 0xeb, 0xbd,
  0xe3, 0x20, 0xaa, 0xbe, 0x3d, 0xd8, 0x99, 0xbd, 0x9b, 0x91, 0xc1, 0xbd,
  0xb8, 0x9c, 0xb7, 0xbd, 0xeb, 0x71, 0xc8, 0xbb, 0xde, 0x3c, 0x59, 0xbe,
  0x4d, 0xb8, 0x46, 0x3c, 0x5e, 0xac, 0x12, 0xbe, 0xa4, 0x39, 0x8c, 0x3d,
  0xbb, 0x48, 0xe7, 0xbd, 0xf7, 0xbf, 0x4e, 0xbe, 0xfc, 0x18, 0xc2, 0xbd,
  0xdb, 0x5a, 0x92, 0x3d, 0xb3, 0xdc, 0xbe, 0xbd, 0xd6, 0xf8, 0xd2, 0xbd,
  0xa7, 0x40, 0x26, 0x3e, 0x80, 0x6a, 0xf0, 0xbe, 0x4b, 0xbb, 0x9e, 0xbe,
  0x82, 0xfe, 0x81, 0xbd, 0x06, 0xad, 0xd7, 0xbc, 0x26, 0x38, 0x42, 0x3d,
  0x85, 0xed, 0x0e, 0x3d, 0xc1, 0x34, 0xc4, 0xbe, 0x94, 0xd6, 0xb0, 0xbd,
  0x64, 0xbd, 0x04, 0xbe, 0x2b, 0xe6, 0x0e, 0xbe, 0x67, 0x00, 0x41, 0xbe,
  0x56, 0xba, 0x5b, 0xbe, 0xbb, 0x52, 0x48, 0xbe, 0x2e, 0xdd, 0x50, 0x3d,
  0xf2, 0x65, 0x33, 0xbd, 0xe6, 0x34, 0x78, 0xbe, 0xc3, 0xb9, 0x0e, 0xbf,
  0xc5, 0xb7, 0xc4, 0x3b, 0xb6, 0x0a, 0x72, 0xbd, 0xb3, 0x94, 0x20, 0x3e,
  0x26, 0x59, 0x4a, 0xbe, 0x93, 0xc3, 0x72, 0xbe, 0x52, 0x5c, 0x06, 0xbd,
  0x7e, 0xc6, 0xc0, 0x3c, 0xaf, 0x88, 0xa0, 0x3d, 0x50, 0x73, 0xce, 0xbd,
  0x7d, 0xf0, 0xa1, 0xbd, 0x3a, 0xa9, 0xf4, 0x3d, 0xaf, 0xa7, 0x97, 0x3d,
  0x6a, 0xb7, 0x41, 0xbe, 0x62, 0x49, 0x17, 0x3d, 0xec, 0x4d, 0x57, 0xbd,
  0xa9, 0xf8, 0x1f, 0xbf, 0x06, 0xdc, 0x9b, 0x3d, 0x5d, 0x1a, 0x87, 0x3d,
  0xb4, 0x23, 0xc9, 0xbd, 0xe4, 0x2a, 0x6e, 0xbe, 0xeb, 0xf4, 0x1a, 0x3e,
  0xfa, 0xbb, 0x1c, 0xbe, 0xc6, 0x43, 0x84, 0x3e, 0xad, 0xde, 0x8d, 0xbd,
  0x0b, 0x1e, 0x1d, 0xbe, 0xea, 0x0c, 0x3f, 0xbe, 0xbc, 0xe5, 0x42, 0x3e,
  0x14, 0xf3, 0xfd, 0x3d, 0x5b, 0xd7, 0x26, 0xbc, 0xfe, 0x73, 0xc5, 0xbd,
  0xbe, 0xe4, 0x35, 0x3d, 0xbc, 0x7c, 0x24, 0xbf, 0x20, 0x5d, 0x66, 0x3d,
  0x41, 0xae, 0x0b, 0xbe, 0xd0, 0x79, 0xc1, 0xbb, 0x94, 0x2c, 0x01, 0x3e,
  0x0f, 0x4a, 0x0f, 0xbe, 0x28, 0xc4, 0xfa, 0xbd, 0xf1, 0xcf, 0x19, 0x3d,
  0xe9, 0xaa, 0x82, 0xbd, 0x45, 0xa6, 0xca, 0xbd, 0x06, 0x67, 0x51, 0xbe,
  0x6b, 0x45, 0x12, 0x3d, 0x12, 0x6d, 0x68, 0xbc, 0xda, 0x3a, 0x94, 0x3c,
  0x60, 0xfb, 0xc2, 0xbd, 0x62, 0xec, 0x66, 0x3e, 0x4f, 0xdb, 0x5a, 0xbe,
  0xc8, 0xbc, 0x21, 0x3e, 0xd8, 0xfe, 0x44, 0x3e, 0x63, 0x26, 0xb3, 0x3d,
  0x04, 0x94, 0x30, 0x3e, 0x91, 0x15, 0x16, 0x3e, 0x43, 0xfe, 0x7c, 0xbe,
  0x5d, 0x85, 0x29, 0xbd, 0xd7, 0x9d, 0x75, 0x3d, 0xb9, 0xdc, 0x06, 0xbe,
  0x81, 0xa5, 0xba, 0x3d, 0xa0, 0xc8, 0x09, 0xbd, 0xf1, 0x73, 0xa5, 0xbd,
  0x47, 0x4e, 0x25, 0x3e, 0xfd, 0xe4, 0xc3, 0x3e, 0xbd, 0xd1, 0x1b, 0xbe,
  0xd0, 0x28, 0xc3, 0xbd, 0x2f, 0x19, 0x58, 0xbc, 0x48, 0x9e, 0xf3, 0xbb,
  0x8e, 0x52, 0x16, 0x3d, 0xe7, 0x2b, 0x9a, 0x3e, 0x1d, 0x5f, 0x75, 0x3e,
  0x76, 0x29, 0x84, 0xbe, 0xa7, 0x68, 0xa6, 0x3c, 0xd0, 0x23, 0x96, 0xbc,
  0xe9, 0x54, 0x5e, 0xbd, 0xfa, 0xca, 0xd0, 0x3d, 0x23, 0x80, 0x04, 0xbe,
  0xad, 0x15, 0x62, 0x3d, 0x1d, 0xc9, 0x9f, 0x3d, 0x84, 0x45, 0x4a, 0x3e,
  0x36, 0x17, 0x02, 0xbe, 0x5e, 0xae, 0xb4, 0x3d, 0x17, 0x94, 0x29, 0x3c,
  0x9b, 0x29, 0x3c, 0x3e, 0x1f, 0x67, 0xec, 0xbd, 0xcf, 0x92, 0x9c, 0x3d,
  0x69, 0xe9, 0xad, 0x3c, 0x69, 0xef, 0x5b, 0xbc, 0x1b, 0xec, 0xa1, 0x3d,
  0xd3, 0x69, 0x0a, 0x3e, 0xcf, 0xa6, 0xe4, 0x3d, 0x30, 0x15, 0x8c, 0x3e,
  0x80, 0xfa, 0x5b, 0x3d, 0x1c, 0x39, 0x57, 0x3e, 0xa4, 0x27, 0x10, 0xbd,
  0x1e, 0x6f, 0x41, 0x3e, 0x39, 0x2d, 0x79, 0x3d, 0xd4, 0x8c, 0x3a, 0xbe,
  0x2c, 0x83, 0xdb, 0x3c, 0x8c, 0xcc, 0x53, 0x3d, 0x8b, 0x78, 0x8b, 0x3d,
  0xc5, 0x95, 0x82, 0x3a, 0xe7, 0x05, 0xd9, 0xbd, 0x29, 0xe0, 0xc8, 0xbd,
  0xe5, 0x50, 0x9f, 0xbd, 0x02, 0x65, 0x45, 0xbd, 0xa5, 0xb9, 0xe4, 0xbd,
  0xd5, 0x7f, 0x83, 0xbe, 0xbf, 0xc4, 0x33, 0xbe, 0xc4, 0x00, 0x97, 0xbe,
  0x96, 0xfc, 0x22, 0x3e, 0x42, 0x4c, 0x09, 0xbe, 0xad, 0x7b, 0xec, 0x3e,
  0xd1, 0x4e, 0x81, 0xbe, 0x5d, 0xb2, 0x96, 0x3c, 0xe3, 0x97, 0x10, 0xbe,
  0xc3, 0xe0, 0xee, 0x3d, 0x95, 0xfe, 0x00, 0xbe, 0x60, 0xf0, 0x18, 0xbe,
  0x29, 0x25, 0xff, 0x3e, 0x6f, 0xe6, 0x73, 0xbd, 0xe4, 0x53, 0xff, 0xbd,
  0xb7, 0x68, 0xc5, 0xbd, 0xe3, 0x5c, 0xf2, 0xbd, 0xca, 0x93, 0xcd, 0xbc,
  0x78, 0x57, 0x54, 0xbd, 0xdf, 0x0d, 0x23, 0x3e, 0x77, 0x7d, 0x17, 0x3e,
  0x67, 0x28, 0xcd, 0x3e, 0x16, 0x51, 0x3b, 0xbe, 0x2d, 0x83, 0x41, 0xbe,
  0xbc, 0x4e, 0x11, 0x3d, 0x56, 0x69, 0x9f, 0x3c, 0x05, 0x43, 0x13, 0x3e,
  0x2d, 0xaf, 0x96, 0x3d, 0xe1, 0xb5, 0x02, 0x3f, 0x53, 0xe6, 0x47, 0x3d,
  0xdd, 0x69, 0x31, 0x3e, 0xb0, 0x2b, 0xab, 0xbe, 0x91, 0xa5, 0x1d, 0xbe,
  0x1e, 0xdb, 0xe5, 0x3e, 0xd4, 0xac, 0x26, 0xbe, 0x5b, 0x8d, 0x4c, 0x3c,
  0x00, 0xb8, 0x84, 0x3d, 0x06, 0x5c, 0x4b, 0x3e, 0x4c, 0x18, 0x5c, 0xbe,
  0x1b, 0x5f, 0xe1, 0xbd, 0xdf, 0xda, 0xfa, 0x3d, 0xc0, 0x27, 0x10, 0xb9,
  0x27, 0xa3, 0x21, 0x3e, 0x1b, 0xa0, 0x33, 0x3e, 0xdb, 0x75, 0x01, 0x3f,
  0xc7, 0x2a, 0x26, 0xbe, 0x61, 0x74, 0x8b, 0x3d, 0x45, 0xd7, 0xab, 0xbe,
  0xe8, 0x29, 0x81, 0xbe, 0x6b, 0x12, 0x13, 0x3d, 0xaf, 0x78, 0x0d, 0xbe,
  0xbe, 0x3d, 0x75, 0x3e, 0xa9, 0x1b, 0x4f, 0xbe, 0x66, 0xb4, 0x8d, 0x3e,
  0xdb, 0xdd, 0x12, 0xbe, 0xa7, 0x37, 0x33, 0xbe, 0x4a, 0x50, 0x2f, 0x3c,
  0x3f, 0x0d, 0x71, 0xbe, 0xe6, 0x29, 0xb0, 0x3d, 0x93, 0x69, 0xed, 0x3d,
  0xb9, 0xbb, 0xca, 0x3e, 0x39, 0xf8, 0x5c, 0xbe, 0xf4, 0xd4, 0x1e, 0x3e,
  0x3b, 0x56, 0x64, 0xbe, 0xa5, 0xea, 0xa4, 0xbb, 0x48, 0x9b, 0x4e, 0x3e,
  0x2b, 0x13, 0xfc, 0xbd, 0x65, 0x55, 0xd3, 0xbc, 0x46, 0xff, 0xcf, 0x3d,
  0x9b, 0xc8, 0xdb, 0x3e, 0xd6, 0x2a, 0xb8, 0xbe, 0xc4, 0xba, 0x77, 0xbe,
  0x7e, 0x0a, 0x14, 0xbe, 0xdd, 0xdf, 0xb2, 0x3d, 0xb0, 0x17, 0x91, 0xbd,
  0xae, 0x98, 0x9d, 0x3d, 0x53, 0x65, 0xc2, 0x3e, 0x2e, 0x36, 0xa3, 0x3d,
  0xb0, 0xe9, 0xb9, 0x3d, 0x82, 0xf3, 0x96, 0xbe, 0x27, 0xa5, 0x97, 0xba,
  0x5f, 0x6b, 0x27, 0xbe, 0x69, 0x57, 0xb0, 0xbd, 0x1b, 0xf8, 0x2e, 0xbe,
  0xe8, 0x3d, 0xc7, 0xbd, 0xea, 0x8f, 0xe8, 0x3e, 0xd2, 0xd8, 0x1f, 0xbe,
  0x99, 0x6e, 0x03, 0xbe, 0xcd, 0x4b, 0x1f, 0xbe, 0xbb, 0xcd, 0xde, 0xbc,
  0xbd, 0x0f, 0xea, 0xbd, 0x44, 0xe9, 0x19, 0x3d, 0x75, 0x63, 0xea, 0x3d,
  0xed, 0x10, 0x09, 0xbe, 0xff, 0xf7, 0xb6, 0x3c, 0xf4, 0x85, 0x81, 0xbe,
  0xca, 0xf9, 0x71, 0xbe, 0x4e, 0x2a, 0x22, 0x3d, 0x27, 0x4e, 0x84, 0xbe,
  0x41, 0x8e, 0x8d, 0xbe, 0x7a, 0x72, 0xe3, 0x3d, 0xff, 0x0e, 0xef, 0x3e,
  0x66, 0x0d, 0x1a, 0x3e, 0xca, 0xdf, 0xa2, 0x3e, 0xf9, 0x09, 0x3e, 0x3e,
  0x1c, 0x24, 0x74, 0x3e, 0xbf, 0x53, 0xe2, 0xbd, 0x9e, 0x25, 0x85, 0xbe,
  0x98, 0xbb, 0xb8, 0x3c, 0xec, 0x4a, 0x37, 0xbe, 0xe4, 0x30, 0x5b, 0xbd,
  0x3d, 0x96, 0x4c, 0x3c, 0x6f, 0xc4, 0xb9, 0xbd, 0x03, 0x03, 0x37, 0xbe,
  0x36, 0x61, 0xa7, 0xbd, 0xb0, 0xd2, 0x55, 0x3e, 0xfc, 0x29, 0x8a, 0xbe,
  0xfe, 0xb6, 0x89, 0xbb, 0x23, 0x16, 0x9b, 0xbd, 0xbd, 0x9e, 0x10, 0xbe,
  0x94, 0x8e, 0xd4, 0x3d, 0x45, 0xe1, 0x89, 0x3e, 0x11, 0x23, 0x13, 0x3e,
  0x4f, 0xfa, 0x2a, 0xbe, 0x43, 0x3d, 0xc1, 0xbd, 0x65, 0x10, 0x61, 0xbd,
  0x80, 0x69, 0x85, 0x3e, 0xf5, 0xf4, 0x05, 0xbc, 0x8a, 0xca, 0x22, 0x3d,
  0x26, 0x19, 0xa0, 0xbd, 0xc8, 0xa6, 0xde, 0xbd, 0x58, 0x2f, 0x58, 0x3e,
  0xfa, 0x75, 0x35, 0x3e, 0xbc, 0x7a, 0x5b, 0x3d, 0xf5, 0x3d, 0x1b, 0xbe,
  0x23, 0xe1, 0xef, 0x3d, 0xfb, 0x16, 0xa8, 0xbd, 0xd8, 0x36, 0x3f, 0xbd,
  0xad, 0xef, 0xfb, 0x3d, 0xcb, 0x28, 0x4d, 0x3d, 0xc0, 0xa3, 0x15, 0xbe,
  0x87, 0x7f, 0xb5, 0x3c, 0xe1, 0xb4, 0xdd, 0x3e, 0x03, 0x03, 0x64, 0xbb,
  0x38, 0x54, 0xae, 0xbc, 0xd9, 0x76, 0xbc, 0xbe, 0xbf, 0x9f, 0x69, 0xbb,
  0x2d, 0xf0, 0x4d, 0x3e, 0x96, 0xbc, 0xb6, 0x3e, 0xeb, 0xe2, 0x3b, 0xbd,
  0xb4, 0xc6, 0xc3, 0x3c, 0x54, 0x2f, 0xf5, 0x3d, 0x7d, 0x56, 0x90, 0x3e,
  0x3e, 0xee, 0xcd, 0x3e, 0x12, 0xd5, 0x6d, 0x3e, 0x50, 0x1d, 0x30, 0x3e,
  0xc8, 0xbe, 0x88, 0x3c, 0x2e, 0x81, 0x65, 0x3d, 0x4c, 0xa2, 0x88, 0x3e,
  0x4c, 0x50, 0xe0, 0x3d, 0x4b, 0xf4, 0xb3, 0x3c, 0x5a, 0x3c, 0xec, 0xbd,
  0x0f, 0xf5, 0x31, 0xbe, 0xa4, 0x54, 0x0b, 0x3e, 0x91, 0x6c, 0x9e, 0x3c,
  0x46, 0x59, 0x83, 0xbd, 0xc9, 0x21, 0x08, 0x3c, 0x58, 0xd8, 0x8f, 0x3e,
  0x6c, 0x19, 0xa3, 0x3e, 0xd9, 0x6f, 0xb0, 0x3e, 0x22, 0xef, 0xdb, 0xbd,
  0x38, 0xf0, 0xc4, 0xbd, 0xb0, 0x64, 0xb8, 0x3e, 0x9a, 0x8d, 0xf3, 0xbd,
  0x31, 0x14, 0x35, 0x3e, 0x10, 0x22, 0x14, 0xbd, 0xdd, 0xec, 0xed, 0x3d,
  0xc9, 0x32, 0xef, 0xbc, 0x5b, 0x97, 0x18, 0xbe, 0xef, 0x2f, 0xe2, 0x3d,
  0x22, 0x40, 0x20, 0xbe, 0xec, 0xa6, 0x1d, 0xbe, 0x4b, 0xb1, 0xd0, 0xbd,
  0x56, 0xee, 0xe0, 0x3c, 0x46, 0x9a, 0x57, 0x3e, 0x4a, 0xbe, 0x8a, 0x3e,
  0xaa, 0x17, 0x83, 0x3e, 0x55, 0x52, 0x73, 0xbe, 0xa6, 0xc5, 0xdf, 0xbd,
  0xc9, 0x00, 0x2b, 0xbe, 0x1c, 0x55, 0xd2, 0x3d, 0x93, 0x75, 0xa0, 0xbd,
  0x03, 0x1b, 0x40, 0xbe, 0x06, 0xe2, 0xa7, 0xbd, 0x65, 0x66, 0x17, 0xbe,
  0x16, 0x5f, 0x01, 0x3e, 0xfb, 0x3f, 0xb8, 0xbd, 0x0f, 0xc5, 0x43, 0xbd,
  0xef, 0x53, 0xd4, 0xbd, 0xc8, 0x7a, 0x5e, 0xbe, 0x3a, 0xab, 0xb9, 0xbd,
  0xf3, 0x08, 0x31, 0xbe, 0xdd, 0xe8, 0xe6, 0x3c, 0xa7, 0xdc, 0x93, 0xbe,
  0x59, 0x19, 0xf6, 0xbd, 0x35, 0x54, 0xe5, 0xbe, 0xb9, 0x97, 0xa3, 0x3e,
  0x6f, 0x71, 0xc5, 0xbd, 0x42, 0xcf, 0xb7, 0xbc, 0x28, 0xef, 0x07, 0x3e,
  0x96, 0xda, 0xc1, 0x3c, 0x64, 0x98, 0x2d, 0xbe, 0x9f, 0xee, 0xb0, 0xbd,
  0x67, 0xab, 0x5e, 0xbe, 0xca, 0x10, 0xd7, 0xbd, 0x87, 0x67, 0xaf, 0xbd,
  0x05, 0x4e, 0x6d, 0x3d, 0xfb, 0x48, 0x37, 0xbd, 0x98, 0x38, 0x04, 0xbe,
  0x9b, 0xc9, 0x13, 0xbe, 0x60, 0xb5, 0x4c, 0xbe, 0x2d, 0x92, 0x69, 0xbe,
  0xab, 0xb8, 0x28, 0xbe, 0x5c, 0xd8, 0x9a, 0xbd, 0x10, 0x0f, 0x91, 0xbe,
  0x5a, 0xd8, 0x76, 0xbd, 0x33, 0xc7, 0x04, 0xbe, 0xd7, 0x7a, 0x19, 0x3d,
  0xed, 0xcf, 0x6d, 0xbe, 0x34, 0x98, 0x0a, 0x3e, 0x42, 0x5c, 0x3d, 0xbe,
  0xc5, 0x70, 0xbd, 0xbd, 0x5e, 0x03, 0x2d, 0x3e, 0x51, 0x46, 0xe4, 0xba,
  0xed, 0xa2, 0xfb, 0x3d, 0x66, 0xfe, 0x04, 0x3b, 0x9c, 0x73, 0x3c, 0xbe,
  0xfb, 0x77, 0xa1, 0x3c, 0x08, 0xae, 0x1a, 0xbe, 0xe7, 0xf0, 0x01, 0xbe,
  0x35, 0x84, 0x3b, 0xbd, 0xf1, 0x04, 0x58, 0xbe, 0x17, 0x70, 0x77, 0xbe,
  0xa7, 0x7a, 0x35, 0x3d, 0x83, 0x91, 0xe7, 0xbd, 0xc4, 0xa5, 0xfc, 0x3d,
  0xa0, 0xc4, 0x35, 0xbc, 0x14, 0x1c, 0xc7, 0xbd, 0xea, 0xed, 0x1a, 0x3e,
  0xd8, 0x07, 0x52, 0x3c, 0x90, 0xbb, 0x29, 0xbe, 0xd7, 0xbc, 0x9f, 0x3b,
  0xa4, 0x48, 0xe7, 0x3d, 0xcb, 0x52, 0x27, 0x3e, 0x33, 0x9d, 0x31, 0x3d,
  0xc1, 0xf9, 0x51, 0xbe, 0xb5, 0x15, 0x27, 0xbe, 0x08, 0xaa, 0x4b, 0xbe,
  0xd3, 0x69, 0xc7, 0xbc, 0x6b, 0x80, 0x49, 0x3d, 0x38, 0x09, 0xaf, 0xbc,
  0xfc, 0xb4, 0xd6, 0xbd, 0xad, 0x19, 0xd1, 0xbd, 0xce, 0xee, 0x15, 0x3e,
  0x07, 0x5e, 0x2e, 0xbe, 0xdb, 0xba, 0x81, 0xbd, 0x87, 0xf5, 0x53, 0xbe,
  0xbd, 0x78, 0xd7, 0x3d, 0x6b, 0x99, 0xad, 0xbc, 0x4e, 0x23, 0x68, 0xbd,
  0x8b, 0x46, 0x8c, 0xbe, 0x31, 0x92, 0x7a, 0xbe, 0xb8, 0xa1, 0x67, 0xbc,
  0xd8, 0x20, 0xf5, 0xbd, 0xe7, 0x2e, 0x31, 0xbe, 0x7a, 0x77, 0xed, 0xbd,
  0x57, 0xea, 0x55, 0xbd, 0x62, 0x68, 0x43, 0x3d, 0xf0, 0x22, 0x0d, 0xbe,
  0x23, 0x18, 0x24, 0xbe, 0x09, 0x0a, 0x20, 0xbd, 0xd4, 0xfb, 0xc8, 0x3d,
  0x82, 0x61, 0xd3, 0x3d, 0x58, 0xa3, 0x53, 0xbe, 0x49, 0x18, 0x24, 0x3d,
  0xd1, 0xf6, 0x99, 0xbc, 0x79, 0xc0, 0x2a, 0xbe, 0x7e, 0x53, 0xb2, 0xbd,
  0x62, 0x40, 0x7b, 0xbe, 0xa6, 0xaa, 0xbe, 0x3c, 0xa5, 0x45, 0x08, 0x3d,
  0x6a, 0xb0, 0x88, 0x39, 0x55, 0xee, 0x4e, 0x3d, 0x80, 0xfc, 0xe4, 0xbd,
  0x96, 0x08, 0x76, 0xbd, 0xa4, 0x61, 0x87, 0xbd, 0xa2, 0xac, 0x62, 0xbd,
  0x5c, 0xc2, 0xad, 0x3d, 0x4c, 0xd8, 0x5e, 0xbe, 0x46, 0x7f, 0x4d, 0x3c,
  0x4e, 0x8a, 0x45, 0x3d, 0x0b, 0xfd, 0x02, 0x3c, 0x4b, 0x5b, 0x43, 0xbd,
  0x92, 0x65, 0x27, 0xbd, 0x19, 0xad, 0x9e, 0xbe, 0x45, 0xf0, 0x6d, 0xbe,
  0x51, 0xbd, 0x3d, 0xbe, 0x98, 0x64, 0x37, 0xbe, 0x61, 0x21, 0xb7, 0x3d,
  0x43, 0xcb, 0x4d, 0x3e, 0x74, 0x6e, 0xc8, 0xbd, 0xab, 0x8e, 0x2e, 0xbe,
  0xb6, 0xef, 0x90, 0xbd, 0xe1, 0xa2, 0x34, 0xbe, 0xc0, 0xd2, 0x8e, 0xbd,
  0xd5, 0x2f, 0x0e, 0x3e, 0x1c, 0xa1, 0x5c, 0xbe, 0x26, 0x9e, 0xef, 0xbd,
  0xf2, 0x1e, 0xf2, 0xbd, 0xb1, 0x18, 0xa6, 0xbd, 0x2f, 0xa7, 0xb2, 0x3d,
  0x50, 0x91, 0x48, 0x3d, 0x87, 0x1b, 0x0c, 0xbe, 0xb5, 0x11, 0xb2, 0xbc,
  0x4d, 0xce, 0x49, 0x3d, 0x3b, 0x2a, 0x21, 0xbc, 0xcc, 0x9a, 0x8d, 0xbe,
  0x20, 0x55, 0x1f, 0xbe, 0x11, 0x68, 0x66, 0x3d, 0x1d, 0xe8, 0x08, 0xbc,
  0x9e, 0x46, 0x66, 0xbe, 0x10, 0x3f, 0x2a, 0xbe, 0xc6, 0x4f, 0x51, 0x3d,
  0x89, 0x0e, 0xac, 0xbd, 0xbd, 0x71, 0x87, 0xbe, 0x3d, 0x32, 0xa7, 0xbe,
  0x7b, 0xbf, 0x3e, 0xbe, 0x12, 0x80, 0x12, 0xbe, 0x33, 0x2f, 0x8b, 0xbd,
  0xef, 0xfd, 0x07, 0xbe, 0x8d, 0x58, 0x2a, 0x3e, 0x10, 0x15, 0x4c, 0x3f,
  0x15, 0xe5, 0x38, 0xbd, 0x35, 0x31, 0xae, 0xbd, 0x04, 0x65, 0x8c, 0xbd,
  0x9b, 0xfd, 0x5f, 0xbe, 0x38, 0x53, 0x21, 0xbe, 0x8e, 0xf7, 0x50, 0x3d,
  0x70, 0x5d, 0x4c, 0x3e, 0x95, 0x59, 0x1b, 0x3e, 0x2d, 0xae, 0x7a, 0xbc,
  0xd0, 0xfe, 0x03, 0xbf, 0xfc, 0x20, 0xff, 0x3c, 0x13, 0x8b, 0x7d, 0x3e,
  0x81, 0x75, 0x72, 0xbd, 0x64, 0x6f, 0xa6, 0xbe, 0xf3, 0x82, 0x06, 0x3e,
  0x69, 0xaf, 0x2b, 0x3f, 0x99, 0xa4, 0x85, 0xbd, 0x5c, 0x20, 0xc0, 0xbd,
  0x75, 0xb0, 0x12, 0x3e, 0xe5, 0xc3, 0x89, 0x3c, 0x01, 0xee, 0xf2, 0x3d,
  0xd9, 0xbd, 0x35, 0x3e, 0xa7, 0x2b, 0xf0, 0x3e, 0x49, 0x3e, 0xca, 0x3d,
  0x87, 0xc9, 0x34, 0x3e, 0x25, 0x3f, 0x0c, 0xbf, 0xb8, 0xbf, 0x66, 0x3c,
  0x1c, 0xdd, 0x13, 0x3e, 0x60, 0xf4, 0x03, 0xbe, 0x97, 0x64, 0x04, 0xbe,
  0xe3, 0x84, 0x55, 0x3e, 0x18, 0xd7, 0x48, 0x3f, 0x44, 0xb3, 0x45, 0xbe,
  0x3a, 0x23, 0xdb, 0xbd, 0x6d, 0x4c, 0x09, 0x3e, 0x24, 0x02, 0x16, 0xbe,
  0xed, 0x9b, 0x46, 0xbe, 0x44, 0x52, 0x0a, 0x3e, 0xe0, 0xb8, 0xbb, 0x3e,
  0x30, 0x87, 0x09, 0x3e, 0x10, 0x19, 0x11, 0x3e, 0x7d, 0xcd, 0x17, 0xbf,
  0x3f, 0x55, 0x70, 0xbe, 0xae, 0xc9, 0x12, 0x3f, 0x4f, 0xd3, 0x70, 0xbe,
  0x61, 0x1a, 0xdf, 0xbd, 0x52, 0xc7, 0xb1, 0x3c, 0x3c, 0x3f, 0x09, 0x3f,
  0x13, 0x3f, 0x80, 0xbe, 0x2a, 0x62, 0x37, 0xbe, 0xf4, 0x5b, 0xbe, 0xbc,
  0x39, 0x18, 0x11, 0xbc, 0x1e, 0x22, 0x22, 0xbe, 0x09, 0xe6, 0xc2, 0xbd,
  0x98, 0xd5, 0xeb, 0x3e, 0xc0, 0x80, 0xc0, 0xbd, 0x3b, 0x81, 0x0d, 0x3e,
  0xdd, 0x63, 0xcc, 0xbe, 0xba, 0x7a, 0x1e, 0xbe, 0x31, 0x1c, 0x89, 0x3e,
  0xc6, 0x07, 0xc4, 0xbd, 0x7c, 0x20, 0x9d, 0x3d, 0x2b, 0x4d, 0x9a, 0xbd,
  0x07, 0x5e, 0x46, 0x3f, 0x83, 0x11, 0x2d, 0xbe, 0xd6, 0x4b, 0x4a, 0x3d,
  0x30, 0xf8, 0x5a, 0xbd, 0x92, 0x9e, 0x5f, 0xbe, 0xcd, 0xb6, 0x38, 0xbe,
  0x0d, 0xee, 0x0d, 0xbe, 0xde, 0x30, 0x74, 0x3e, 0x4b, 0xed, 0x95, 0xbd,
  0xa8, 0xe6, 0xa5, 0xbd, 0xb6, 0xcb, 0x70, 0xbe, 0xda, 0x52, 0x9b, 0xbe,
  0x5a, 0xdf, 0xe9, 0x3e, 0xe1, 0x93, 0xa9, 0x3d, 0x3d, 0x85, 0x9e, 0x3d,
  0xf2, 0x88, 0x16, 0x3e, 0x99, 0xdd, 0x00, 0x3f, 0x70, 0xe9, 0x6d, 0xbd,
  0xf2, 0xfc, 0x0c, 0xbe, 0x9c, 0xf8, 0x24, 0xbe, 0x0b, 0x23, 0x2e, 0xbe,
  0x93, 0xf7, 0x7c, 0x3d, 0x34, 0x66, 0x7e, 0x3d, 0x32, 0xf9, 0x9a, 0x3e,
  0x6a, 0x4e, 0x5e, 0xbe, 0xa0, 0x9d, 0x21, 0xbc, 0x62, 0x4f, 0xcd, 0xbe,
  0x82, 0xc2, 0xa6, 0xbe, 0x27, 0x83, 0x0b, 0x3d, 0xb2, 0xd5, 0x63, 0xbe,
  0xae, 0x82, 0xdd, 0xbd, 0x7b, 0xb8, 0x04, 0x3d, 0x2c, 0x0a, 0xf4, 0x3e,
  0x66, 0xfd, 0xff, 0xff, 0x10, 0x00, 0x00, 0x00, 0x07, 0x00, 0x00, 0x00,
  0x14, 0x00, 0x00, 0x00, 0x2c, 0x00, 0x00, 0x00, 0x02, 0x00, 0x00, 0x00,
  0x10, 0x00, 0x00, 0x00, 0x70, 0x00, 0x00, 0x00, 0x17, 0x00, 0x00, 0x00,
  0x73, 0x65, 0x71, 0x75, 0x65, 0x6e, 0x74, 0x69, 0x61, 0x6c, 0x2f, 0x64,
  0x65, 0x6e, 0x73, 0x65, 0x2f, 0x4d, 0x61, 0x74, 0x4d, 0x75, 0x6c, 0x00,
  0xd0, 0xfc, 0xff, 0xff, 0xda, 0xfd, 0xff, 0xff, 0x04, 0x00, 0x00, 0x00,
  0x08, 0x00, 0x00, 0x00, 0xff, 0xff, 0xff, 0xff, 0x70, 0x00, 0x00, 0x00,
  0x00, 0x00, 0x0e, 0x00, 0x18, 0x00, 0x08, 0x00, 0x07, 0x00, 0x0c, 0x00,
  0x10, 0x00, 0x14, 0x00, 0x0e, 0x00, 0x00, 0x00, 0x00, 0x00, 0x00, 0x02,
  0x10, 0x00, 0x00, 0x00, 0x06, 0x00, 0x00, 0x00, 0x10, 0x00, 0x00, 0x00,
  0x2c, 0x00, 0x00, 0x00, 0x01, 0x00, 0x00, 0x00, 0x02, 0x00, 0x00, 0x00,
  0x18, 0x00, 0x00, 0x00, 0x73, 0x65, 0x71, 0x75, 0x65, 0x6e, 0x74, 0x69,
  0x61, 0x6c, 0x2f, 0x66, 0x6c, 0x61, 0x74, 0x74, 0x65, 0x6e, 0x2f, 0x43,
  0x6f, 0x6e, 0x73, 0x74, 0x00, 0x00, 0x00, 0x00, 0x38, 0xfd, 0xff, 0xff,
  0x42, 0xfe, 0xff, 0xff, 0x04, 0x00, 0x00, 0x00, 0x0c, 0x00, 0x00, 0x00,
  0x8e, 0x4b, 0x63, 0xc0, 0x7b, 0x9a, 0xf5, 0x3f, 0xbe, 0xe7, 0xd6, 0x3e,
  0x26, 0xfe, 0xff, 0xff, 0x10, 0x00, 0x00, 0x00, 0x05, 0x00, 0x00, 0x00,
  0x10, 0x00, 0x00, 0x00, 0x44, 0x00, 0x00, 0x00, 0x01, 0x00, 0x00, 0x00,
  0x03, 0x00, 0x00, 0x00, 0x32, 0x00, 0x00, 0x00, 0x73, 0x65, 0x71, 0x75,
  0x65, 0x6e, 0x74, 0x69, 0x61, 0x6c, 0x2f, 0x64, 0x65, 0x6e, 0x73, 0x65,
  0x5f, 0x31, 0x2f, 0x42, 0x69, 0x61, 0x73, 0x41, 0x64, 0x64, 0x2f, 0x52,
  0x65, 0x61, 0x64, 0x56, 0x61, 0x72, 0x69, 0x61, 0x62, 0x6c, 0x65, 0x4f,
  0x70, 0x2f, 0x72, 0x65, 0x73, 0x6f, 0x75, 0x72, 0x63, 0x65, 0x00, 0x00,
  0xa8, 0xfd, 0xff, 0xff, 0xb2, 0xfe, 0xff, 0xff, 0x04, 0x00, 0x00, 0x00,
  0x40, 0x00, 0x00, 0x00, 0xeb, 0x75, 0x89, 0xbf, 0x1d, 0xbf, 0x2b, 0x3e,
  0x7b, 0x6e, 0x66, 0xbf, 0x75, 0x70, 0xcd, 0x3f, 0xec, 0xf4, 0xc0, 0xbf,
  0x03, 0xde, 0x6f, 0x40, 0xf7, 0x50, 0x27, 0x40, 0x47, 0x9b, 0xdb, 0xbd,
  0x97, 0x63, 0xac, 0xbf, 0x20, 0x02, 0x0d, 0x3e, 0xcf, 0xeb, 0x60, 0xbe,
  0xf6, 0xf7, 0x11, 0xbf, 0x86, 0x2c, 0x90, 0x3f, 0x5f, 0xa2, 0x20, 0xbf,
  0x56, 0x3a, 0x60, 0xbe, 0x62, 0xcd, 0xbe, 0x3f, 0xca, 0xfe, 0xff, 0xff,
  0x10, 0x00, 0x00, 0x00, 0x04, 0x00, 0x00, 0x00, 0x10, 0x00, 0x00, 0x00,
  0x44, 0x00, 0x00, 0x00, 0x01, 0x00, 0x00, 0x00, 0x10, 0x00, 0x00, 0x00,
  0x30, 0x00, 0x00, 0x00, 0x73, 0x65, 0x71, 0x75, 0x65, 0x6e, 0x74, 0x69,
  0x61, 0x6c, 0x2f, 0x64, 0x65, 0x6e, 0x73, 0x65, 0x2f, 0x42, 0x69, 0x61,
  0x73, 0x41, 0x64, 0x64, 0x2f, 0x52, 0x65, 0x61, 0x64, 0x56, 0x61, 0x72,
  0x69, 0x61, 0x62, 0x6c, 0x65, 0x4f, 0x70, 0x2f, 0x72, 0x65, 0x73, 0x6f,
  0x75, 0x72, 0x63, 0x65, 0x00, 0x00, 0x00, 0x00, 0x4c, 0xfe, 0xff, 0xff,
  0x56, 0xff, 0xff, 0xff, 0x04, 0x00, 0x00, 0x00, 0x40, 0x00, 0x00, 0x00,
  0xfb, 0xa9, 0x47, 0x3f, 0x9e, 0xe1, 0xca, 0xbf, 0xdf, 0x56, 0x0c, 0xc0,
  0xb4, 0x6d, 0xc8, 0xbf, 0x15, 0xe3, 0x09, 0xc0, 0xdf, 0xaa, 0xd4, 0xbf,
  0xcc, 0x50, 0x2c, 0x40, 0x48, 0x30, 0x9d, 0xbf, 0x48, 0xc8, 0x07, 0xc0,
  0x71, 0x81, 0x90, 0x3e, 0x00, 0x24, 0x43, 0x3d, 0x72, 0x95, 0x6b, 0x3f,
  0xa4, 0x75, 0xda, 0x3b, 0xb7, 0xc6, 0x00, 0xc0, 0xfe, 0x77, 0xe8, 0xbf,
  0x4b, 0xaa, 0x4f, 0x3f, 0x6e, 0xff, 0xff, 0xff, 0x10, 0x00, 0x00, 0x00,
  0x03, 0x00, 0x00, 0x00, 0x10, 0x00, 0x00, 0x00, 0x48, 0x00, 0x00, 0x00,
  0x01, 0x00, 0x00, 0x00, 0x10, 0x00, 0x00, 0x00, 0x33, 0x00, 0x00, 0x00,
  0x73, 0x65, 0x71, 0x75, 0x65, 0x6e, 0x74, 0x69, 0x61, 0x6c, 0x2f, 0x63,
  0x6f, 0x6e, 0x76, 0x32, 0x64, 0x5f, 0x31, 0x2f, 0x42, 0x69, 0x61, 0x73,
  0x41, 0x64, 0x64, 0x2f, 0x52, 0x65, 0x61, 0x64, 0x56, 0x61, 0x72, 0x69,
  0x61, 0x62, 0x6c, 0x65, 0x4f, 0x70, 0x2f, 0x72, 0x65, 0x73, 0x6f, 0x75,
  0x72, 0x63, 0x65, 0x00, 0x04, 0x00, 0x06, 0x00, 0x04, 0x00, 0x00, 0x00,
  0x00, 0x00, 0x06, 0x00, 0x08, 0x00, 0x04, 0x00, 0x06, 0x00, 0x00, 0x00,
  0x04, 0x00, 0x00, 0x00, 0x20, 0x00, 0x00, 0x00, 0x34, 0x75, 0xc0, 0xbf,
  0x0c, 0xe1, 0x0d, 0xc0, 0x2d, 0x1b, 0xff, 0x3d, 0xc7, 0xc3, 0xab, 0xbf,
  0x3a, 0x56, 0xbc, 0xbf, 0x61, 0x43, 0x93, 0xbe, 0x8e, 0x73, 0x7b, 0xbf,
  0x98, 0x3d, 0x0a, 0xbf, 0x00, 0x00, 0x0e, 0x00, 0x14, 0x00, 0x04, 0x00,
  0x00, 0x00, 0x08, 0x00, 0x0c, 0x00, 0x10, 0x00, 0x0e, 0x00, 0x00, 0x00,
  0x10, 0x00, 0x00, 0x00, 0x02, 0x00, 0x00, 0x00, 0x10, 0x00, 0x00, 0x00,
  0x44, 0x00, 0x00, 0x00, 0x01, 0x00, 0x00, 0x00, 0x08, 0x00, 0x00, 0x00,
  0x31, 0x00, 0x00, 0x00, 0x73, 0x65, 0x71, 0x75, 0x65, 0x6e, 0x74, 0x69,
  0x61, 0x6c, 0x2f, 0x63, 0x6f, 0x6e, 0x76, 0x32, 0x64, 0x2f, 0x42, 0x69,
  0x61, 0x73, 0x41, 0x64, 0x64, 0x2f, 0x52, 0x65, 0x61, 0x64, 0x56, 0x61,
  0x72, 0x69, 0x61, 0x62, 0x6c, 0x65, 0x4f, 0x70, 0x2f, 0x72, 0x65, 0x73,
  0x6f, 0x75, 0x72, 0x63, 0x65, 0x00, 0x00, 0x00, 0x90, 0xff, 0xff, 0xff,
  0x14, 0x00, 0x18, 0x00, 0x04, 0x00, 0x00, 0x00, 0x08, 0x00, 0x0c, 0x00,
  0x10, 0x00, 0x00, 0x00, 0x00, 0x00, 0x14, 0x00, 0x14, 0x00, 0x00, 0x00,
  0x14, 0x00, 0x00, 0x00, 0x01, 0x00, 0x00, 0x00, 0x20, 0x00, 0x00, 0x00,
  0x44, 0x00, 0x00, 0x00, 0x2c, 0x00, 0x00, 0x00, 0x04, 0x00, 0x00, 0x00,
  0x01, 0x00, 0x00, 0x00, 0x40, 0x00, 0x00, 0x00, 0x03, 0x00, 0x00, 0x00,
  0x01, 0x00, 0x00, 0x00, 0x0c, 0x00, 0x00, 0x00, 0x63, 0x6f, 0x6e, 0x76,
  0x32, 0x64, 0x5f, 0x69, 0x6e, 0x70, 0x75, 0x74, 0x00, 0x00, 0x00, 0x00,
  0x04, 0x00, 0x00, 0x00, 0xff, 0xff, 0xff, 0xff, 0x40, 0x00, 0x00, 0x00,
  0x03, 0x00, 0x00, 0x00, 0x01, 0x00, 0x00, 0x00, 0xfc, 0xff, 0xff, 0xff,
  0x04, 0x00, 0x04, 0x00, 0x04, 0x00, 0x00, 0x00
};
unsigned int _content_mbed08_model_model_tflite_len = 13052;
